#include "./include/model.h"
#include "./ESSensor/include/es_sensor.h"
#include "./Global/include/global.h"

const unsigned char model_tflite[] = {
    0x1c, 0x00, 0x00, 0x00, 0x54, 0x46, 0x4c, 0x33, 0x14, 0x00, 0x20, 0x00,
    0x1c, 0x00, 0x18, 0x00, 0x14, 0x00, 0x10, 0x00, 0x0c, 0x00, 0x00, 0x00,
    0x08, 0x00, 0x04, 0x00, 0x14, 0x00, 0x00, 0x00, 0x1c, 0x00, 0x00, 0x00,
    0x98, 0x00, 0x00, 0x00, 0xf0, 0x00, 0x00, 0x00, 0xc0, 0x4d, 0x00, 0x00,
    0xd0, 0x4d, 0x00, 0x00, 0x94, 0x53, 0x00, 0x00, 0x03, 0x00, 0x00, 0x00,
    0x01, 0x00, 0x00, 0x00, 0x10, 0x00, 0x00, 0x00, 0x00, 0x00, 0x0a, 0x00,
    0x10, 0x00, 0x0c, 0x00, 0x08, 0x00, 0x04, 0x00, 0x0a, 0x00, 0x00, 0x00,
    0x0c, 0x00, 0x00, 0x00, 0x1c, 0x00, 0x00, 0x00, 0x3c, 0x00, 0x00, 0x00,
    0x0f, 0x00, 0x00, 0x00, 0x73, 0x65, 0x72, 0x76, 0x69, 0x6e, 0x67, 0x5f,
    0x64, 0x65, 0x66, 0x61, 0x75, 0x6c, 0x74, 0x00, 0x01, 0x00, 0x00, 0x00,
    0x04, 0x00, 0x00, 0x00, 0x90, 0xff, 0xff, 0xff, 0x0b, 0x00, 0x00, 0x00,
    0x04, 0x00, 0x00, 0x00, 0x08, 0x00, 0x00, 0x00, 0x6f, 0x75, 0x74, 0x70,
    0x75, 0x74, 0x5f, 0x30, 0x00, 0x00, 0x00, 0x00, 0x01, 0x00, 0x00, 0x00,
    0x04, 0x00, 0x00, 0x00, 0xce, 0xb4, 0xff, 0xff, 0x04, 0x00, 0x00, 0x00,
    0x0e, 0x00, 0x00, 0x00, 0x69, 0x6e, 0x70, 0x75, 0x74, 0x5f, 0x6c, 0x61,
    0x79, 0x65, 0x72, 0x5f, 0x31, 0x31, 0x00, 0x00, 0x02, 0x00, 0x00, 0x00,
    0x34, 0x00, 0x00, 0x00, 0x04, 0x00, 0x00, 0x00, 0xdc, 0xff, 0xff, 0xff,
    0x0e, 0x00, 0x00, 0x00, 0x04, 0x00, 0x00, 0x00, 0x13, 0x00, 0x00, 0x00,
    0x43, 0x4f, 0x4e, 0x56, 0x45, 0x52, 0x53, 0x49, 0x4f, 0x4e, 0x5f, 0x4d,
    0x45, 0x54, 0x41, 0x44, 0x41, 0x54, 0x41, 0x00, 0x08, 0x00, 0x0c, 0x00,
    0x08, 0x00, 0x04, 0x00, 0x08, 0x00, 0x00, 0x00, 0x0d, 0x00, 0x00, 0x00,
    0x04, 0x00, 0x00, 0x00, 0x13, 0x00, 0x00, 0x00, 0x6d, 0x69, 0x6e, 0x5f,
    0x72, 0x75, 0x6e, 0x74, 0x69, 0x6d, 0x65, 0x5f, 0x76, 0x65, 0x72, 0x73,
    0x69, 0x6f, 0x6e, 0x00, 0x0f, 0x00, 0x00, 0x00, 0xcc, 0x4c, 0x00, 0x00,
    0xc4, 0x4c, 0x00, 0x00, 0xb4, 0x4a, 0x00, 0x00, 0x9c, 0x2a, 0x00, 0x00,
    0x8c, 0x02, 0x00, 0x00, 0x6c, 0x02, 0x00, 0x00, 0xdc, 0x01, 0x00, 0x00,
    0xcc, 0x00, 0x00, 0x00, 0xb4, 0x00, 0x00, 0x00, 0xac, 0x00, 0x00, 0x00,
    0xa4, 0x00, 0x00, 0x00, 0x9c, 0x00, 0x00, 0x00, 0x94, 0x00, 0x00, 0x00,
    0x74, 0x00, 0x00, 0x00, 0x04, 0x00, 0x00, 0x00, 0x86, 0xb5, 0xff, 0xff,
    0x04, 0x00, 0x00, 0x00, 0x60, 0x00, 0x00, 0x00, 0x10, 0x00, 0x00, 0x00,
    0x00, 0x00, 0x00, 0x00, 0x08, 0x00, 0x0e, 0x00, 0x08, 0x00, 0x04, 0x00,
    0x08, 0x00, 0x00, 0x00, 0x10, 0x00, 0x00, 0x00, 0x24, 0x00, 0x00, 0x00,
    0x00, 0x00, 0x06, 0x00, 0x08, 0x00, 0x04, 0x00, 0x06, 0x00, 0x00, 0x00,
    0x04, 0x00, 0x00, 0x00, 0x00, 0x00, 0x00, 0x00, 0x0c, 0x00, 0x18, 0x00,
    0x14, 0x00, 0x10, 0x00, 0x0c, 0x00, 0x04, 0x00, 0x0c, 0x00, 0x00, 0x00,
    0x16, 0x91, 0xbc, 0xf6, 0x34, 0x74, 0x93, 0xec, 0x02, 0x00, 0x00, 0x00,
    0x02, 0x00, 0x00, 0x00, 0x04, 0x00, 0x00, 0x00, 0x06, 0x00, 0x00, 0x00,
    0x32, 0x2e, 0x31, 0x38, 0x2e, 0x30, 0x00, 0x00, 0xf2, 0xb5, 0xff, 0xff,
    0x04, 0x00, 0x00, 0x00, 0x10, 0x00, 0x00, 0x00, 0x31, 0x2e, 0x35, 0x2e,
    0x30, 0x00, 0x00, 0x00, 0x00, 0x00, 0x00, 0x00, 0x00, 0x00, 0x00, 0x00,
    0x58, 0xae, 0xff, 0xff, 0x5c, 0xae, 0xff, 0xff, 0x60, 0xae, 0xff, 0xff,
    0x64, 0xae, 0xff, 0xff, 0x1e, 0xb6, 0xff, 0xff, 0x04, 0x00, 0x00, 0x00,
    0x08, 0x00, 0x00, 0x00, 0xff, 0xff, 0xff, 0xff, 0x28, 0x00, 0x00, 0x00,
    0x32, 0xb6, 0xff, 0xff, 0x04, 0x00, 0x00, 0x00, 0x00, 0x01, 0x00, 0x00,
    0x0f, 0x2b, 0xd8, 0xbc, 0x73, 0x35, 0x2d, 0xbd, 0x96, 0xc4, 0x97, 0xbd,
    0x7f, 0x9e, 0xf1, 0xbd, 0xb2, 0xd9, 0xb7, 0xbc, 0xd3, 0x0b, 0x49, 0x3c,
    0xd2, 0x56, 0x3d, 0xbe, 0x16, 0x95, 0x96, 0xbd, 0x41, 0x1a, 0x18, 0x3d,
    0xbf, 0x67, 0xd5, 0xbd, 0x61, 0x6c, 0xa4, 0xbd, 0xab, 0xe4, 0x9e, 0xbc,
    0x32, 0x6d, 0xba, 0x3d, 0xb4, 0xdc, 0x0c, 0xbd, 0x20, 0x42, 0x25, 0xbc,
    0x00, 0x00, 0x00, 0x00, 0x82, 0xbd, 0x45, 0x3c, 0xb3, 0x2f, 0xb6, 0x3c,
    0xcf, 0x9f, 0x1c, 0x3d, 0xce, 0xe2, 0x80, 0x3d, 0x90, 0xa7, 0x40, 0xbd,
    0x57, 0x6d, 0x27, 0xbd, 0x69, 0x0e, 0xdf, 0xbd, 0x4b, 0x85, 0x1f, 0x3c,
    0x24, 0x1a, 0x83, 0xbd, 0x00, 0x00, 0x00, 0x00, 0x92, 0xa7, 0x6b, 0xbd,
    0x74, 0xb4, 0x91, 0x3c, 0x76, 0x9b, 0x19, 0xbd, 0x43, 0xac, 0x97, 0xbd,
    0x9f, 0xff, 0xc7, 0xbc, 0x12, 0x75, 0x04, 0xbd, 0x43, 0xa8, 0xd9, 0xbb,
    0x17, 0x4e, 0xb3, 0xbd, 0x88, 0xd4, 0xae, 0xbd, 0xc0, 0xa1, 0xca, 0x38,
    0x01, 0x69, 0xa8, 0xbc, 0x55, 0x4e, 0xfd, 0xbd, 0x7e, 0x0c, 0xab, 0xbd,
    0x53, 0x57, 0xa6, 0x3a, 0x14, 0xcc, 0x47, 0xbc, 0x02, 0xaf, 0xf5, 0xbd,
    0xaa, 0x35, 0x09, 0x3a, 0xed, 0x24, 0xe6, 0xbc, 0x9e, 0xed, 0x4d, 0xbd,
    0x0f, 0x19, 0xdf, 0x3d, 0x6f, 0xcd, 0x7b, 0xbd, 0xc1, 0x7d, 0xa8, 0xbc,
    0x1d, 0xcc, 0x51, 0xbd, 0x5e, 0x36, 0x97, 0xbb, 0xe8, 0x7c, 0x0b, 0xbb,
    0xce, 0x15, 0xb4, 0xbd, 0xda, 0x0f, 0x38, 0x3c, 0x16, 0x07, 0x0d, 0x3d,
    0xe0, 0x26, 0xf9, 0x3c, 0xf1, 0x2e, 0x8f, 0x3b, 0xb2, 0x44, 0x97, 0xbd,
    0xad, 0x3e, 0x13, 0xbd, 0xd2, 0xff, 0x70, 0xbd, 0xde, 0x02, 0xec, 0xbc,
    0x5e, 0xad, 0x80, 0x3d, 0xab, 0x04, 0x64, 0xbd, 0x97, 0x3f, 0xa9, 0xbd,
    0xa2, 0xa3, 0x04, 0x3d, 0x3e, 0xb7, 0xff, 0xff, 0x04, 0x00, 0x00, 0x00,
    0x80, 0x00, 0x00, 0x00, 0xea, 0xe3, 0xa3, 0xbd, 0x52, 0x75, 0xd5, 0xbc,
    0x25, 0x51, 0x20, 0x3d, 0x76, 0x40, 0xda, 0x3c, 0xcb, 0x09, 0x9f, 0x3c,
    0xa9, 0x5a, 0x81, 0x3c, 0xa4, 0x78, 0x8f, 0xbd, 0x69, 0x6f, 0x19, 0x3c,
    0xd9, 0xe0, 0x39, 0x3d, 0x29, 0x39, 0x57, 0xbd, 0x8c, 0xb4, 0x9d, 0xbd,
    0x70, 0xfd, 0xc9, 0x3b, 0x24, 0x4d, 0x0d, 0x3c, 0xc3, 0x89, 0x6e, 0xbd,
    0xd1, 0xb6, 0x07, 0x3d, 0x46, 0x0c, 0x75, 0xbb, 0x20, 0x7f, 0x18, 0xbe,
    0x10, 0x0b, 0xd5, 0x3c, 0x1f, 0x5d, 0x2f, 0x3c, 0xa2, 0xf0, 0x19, 0xbd,
    0x6f, 0xbc, 0x39, 0xbd, 0x7f, 0x34, 0x84, 0xbd, 0x38, 0x11, 0x08, 0xbe,
    0x1b, 0xd6, 0x3c, 0x3d, 0x47, 0x3b, 0x87, 0x3d, 0x8e, 0x3b, 0x09, 0x3c,
    0x2b, 0xf9, 0x8a, 0x3b, 0x3c, 0x3d, 0xba, 0xbd, 0x7a, 0xf8, 0x73, 0x3c,
    0xa5, 0xc2, 0xfb, 0xbc, 0x3a, 0x3a, 0x51, 0xbc, 0xc0, 0x9a, 0xab, 0x38,
    0xca, 0xb7, 0xff, 0xff, 0x04, 0x00, 0x00, 0x00, 0x10, 0x00, 0x00, 0x00,
    0xb0, 0x05, 0xb9, 0x3e, 0xdb, 0x55, 0xd3, 0x3e, 0x22, 0xaf, 0xac, 0x3e,
    0xbd, 0x03, 0xc3, 0x3e, 0xe6, 0xb7, 0xff, 0xff, 0x04, 0x00, 0x00, 0x00,
    0x00, 0x28, 0x00, 0x00, 0x4f, 0x3e, 0x98, 0xbd, 0x3b, 0xe8, 0x69, 0x3e,
    0x43, 0xe4, 0xe7, 0xbe, 0xb1, 0xa9, 0x27, 0x3e, 0x6e, 0x86, 0x38, 0x3e,
    0x55, 0x9c, 0x7c, 0x3d, 0x97, 0xd9, 0x6d, 0x3e, 0xf0, 0x8e, 0x62, 0xbd,
    0x1e, 0x3c, 0xb3, 0x3d, 0x3b, 0x6c, 0x4d, 0xbe, 0xac, 0x65, 0x02, 0x3e,
    0x5b, 0x9e, 0x37, 0x3d, 0x80, 0xd7, 0xec, 0xbe, 0x24, 0xa2, 0x94, 0x3d,
    0x8c, 0xf8, 0x5a, 0x3e, 0x75, 0x18, 0x21, 0xbe, 0x91, 0xbc, 0x83, 0xbe,
    0xb2, 0xb8, 0x38, 0xbe, 0x41, 0x7d, 0x55, 0x3e, 0x9c, 0x68, 0x84, 0xbe,
    0xc4, 0x4c, 0x75, 0x3e, 0x69, 0xf3, 0x57, 0xbe, 0x90, 0x8f, 0x0e, 0xbd,
    0x55, 0x47, 0x31, 0xbe, 0xfd, 0xd8, 0x1d, 0x3e, 0x4a, 0xe8, 0xba, 0xbd,
    0xc5, 0x5e, 0x9c, 0xbd, 0x74, 0xf2, 0xcd, 0xbc, 0x24, 0x45, 0x59, 0xbe,
    0x6d, 0xd7, 0x17, 0x3e, 0x65, 0xea, 0x34, 0xbe, 0x68, 0x6b, 0x59, 0xbe,
    0xec, 0x94, 0xf2, 0x3d, 0xb8, 0x51, 0x85, 0x3e, 0xab, 0x6d, 0x8b, 0x3e,
    0x07, 0x03, 0x29, 0xbe, 0xd4, 0xbe, 0xc9, 0x3d, 0xf4, 0x0b, 0x5f, 0xbe,
    0x35, 0xe5, 0x4b, 0xbe, 0xa2, 0x04, 0x21, 0x3d, 0xee, 0x02, 0xc6, 0xbe,
    0x21, 0x94, 0xc4, 0x3e, 0x8a, 0xc4, 0xfa, 0xbe, 0xe3, 0x49, 0x27, 0xbe,
    0x1b, 0xae, 0x57, 0xbe, 0x1d, 0xbf, 0x84, 0x3d, 0x94, 0x77, 0xaa, 0x3b,
    0xb1, 0x95, 0xb0, 0xbc, 0xd6, 0xd9, 0xab, 0xbe, 0x15, 0xa7, 0x3e, 0x3d,
    0x54, 0x53, 0xb8, 0xbc, 0x7e, 0xa9, 0xf3, 0xbe, 0x38, 0x17, 0xbe, 0xbc,
    0xeb, 0x47, 0x6f, 0x3e, 0xca, 0x6e, 0x48, 0xbd, 0x4e, 0x0a, 0xfb, 0xbc,
    0xb3, 0x8f, 0x09, 0xbe, 0x77, 0x68, 0xa2, 0x3c, 0x22, 0x0f, 0x04, 0x3e,
    0xd5, 0x11, 0x9e, 0x3d, 0x02, 0x3e, 0xe9, 0xbe, 0xc6, 0x57, 0x42, 0x3e,
    0xe4, 0x04, 0x00, 0x3c, 0x68, 0xc8, 0xa1, 0x3c, 0x8b, 0x80, 0xfe, 0x3d,
    0x4d, 0xcf, 0x3d, 0xbe, 0xab, 0x43, 0x93, 0x3d, 0x60, 0x87, 0x12, 0xbe,
    0x9b, 0x71, 0xb1, 0x3e, 0x98, 0xee, 0x09, 0x3e, 0xfc, 0x15, 0x9d, 0xbe,
    0x8e, 0x04, 0x00, 0x3e, 0xa6, 0x95, 0x89, 0xbd, 0x08, 0x69, 0x01, 0xbe,
    0xc0, 0x20, 0xd4, 0x3d, 0x68, 0xb8, 0x79, 0x3d, 0x74, 0x8c, 0x38, 0xbe,
    0x26, 0xc1, 0x3f, 0x3e, 0x1e, 0x2d, 0x98, 0x3e, 0xb3, 0x07, 0x38, 0x3d,
    0x2c, 0x2f, 0x47, 0xbd, 0xb3, 0xb8, 0x0c, 0xbd, 0x98, 0xa8, 0x95, 0x3e,
    0x23, 0xf2, 0x1e, 0x3e, 0x91, 0x7d, 0x1f, 0x3e, 0xa4, 0xf8, 0x9b, 0x3c,
    0xec, 0xda, 0x7e, 0xbe, 0x2e, 0x38, 0xa0, 0x3c, 0x71, 0x14, 0xc8, 0x3d,
    0xea, 0x99, 0xb4, 0xbe, 0xc3, 0xc8, 0x99, 0x3d, 0x4d, 0xa0, 0x91, 0x3d,
    0x7b, 0x62, 0xad, 0x3e, 0x22, 0x38, 0x02, 0x3e, 0x92, 0x9a, 0xa8, 0x3d,
    0x14, 0x1e, 0x37, 0xbe, 0x2d, 0x8d, 0xbe, 0xbd, 0x3a, 0x14, 0x41, 0x3d,
    0x61, 0x56, 0x23, 0x3e, 0xb1, 0x74, 0x91, 0xbc, 0x16, 0x82, 0x8f, 0x3d,
    0xb4, 0x2e, 0x38, 0x3e, 0x96, 0x4d, 0xcb, 0xba, 0x70, 0x00, 0x8e, 0x3e,
    0x7c, 0x26, 0x8c, 0xbe, 0x78, 0xa8, 0xc1, 0x3d, 0x51, 0x95, 0xd4, 0xbd,
    0x19, 0x57, 0x8c, 0xbd, 0x55, 0x0b, 0xed, 0x3d, 0x2d, 0x14, 0xe9, 0xbd,
    0x45, 0xf7, 0x57, 0xbe, 0x6f, 0x77, 0x54, 0xbe, 0xa7, 0xd4, 0xb3, 0xbe,
    0xa0, 0x09, 0x3d, 0x3d, 0x96, 0x02, 0x95, 0xba, 0xf9, 0xc4, 0x92, 0xbe,
    0x0f, 0xc0, 0x97, 0xbe, 0x14, 0xd5, 0x0d, 0x3e, 0x73, 0x36, 0x72, 0xbd,
    0x39, 0x47, 0xaa, 0x3d, 0x08, 0xd9, 0x85, 0xbe, 0x22, 0xa0, 0x92, 0xbd,
    0xfc, 0x41, 0xbc, 0xbd, 0x52, 0xd8, 0xe7, 0xbd, 0x4f, 0x50, 0x23, 0x3e,
    0xdd, 0xd9, 0x8a, 0xbe, 0xcd, 0x34, 0x08, 0x3e, 0x9f, 0xfa, 0xe0, 0x3d,
    0xbb, 0x71, 0x1e, 0xbe, 0x6a, 0x92, 0xdf, 0x3d, 0x0d, 0xd9, 0xba, 0xbd,
    0xce, 0xef, 0x76, 0xbe, 0x5d, 0x17, 0x92, 0xbd, 0xdc, 0xcb, 0x53, 0x3e,
    0x21, 0xa3, 0xc4, 0xbb, 0xd8, 0xe1, 0xe9, 0x3d, 0xa8, 0xf4, 0x29, 0x3e,
    0xd2, 0xbf, 0x7b, 0xbe, 0x8e, 0x38, 0xc3, 0xbe, 0xf0, 0xa3, 0x4b, 0xbd,
    0x64, 0x9f, 0x83, 0xbb, 0x23, 0xa3, 0x5e, 0x3e, 0x15, 0xb1, 0x23, 0xbe,
    0x12, 0xed, 0x81, 0x3e, 0x71, 0x74, 0x00, 0x3d, 0xf2, 0x0a, 0x0d, 0xbe,
    0x03, 0x47, 0x97, 0xbe, 0x92, 0x40, 0xfb, 0x3d, 0xa7, 0xd8, 0x47, 0x3e,
    0x5d, 0xfd, 0xcf, 0x3d, 0x2a, 0x5c, 0xcb, 0xbc, 0x24, 0x84, 0x58, 0x3e,
    0xc7, 0x26, 0xe6, 0xbd, 0x41, 0xfa, 0x08, 0xbe, 0xe9, 0xe6, 0x78, 0xbd,
    0x18, 0x28, 0x82, 0x3e, 0x68, 0xc7, 0x87, 0x3e, 0x04, 0x11, 0xe1, 0xbe,
    0xce, 0x4c, 0x7d, 0xbd, 0x0d, 0xa0, 0x9b, 0x3d, 0x65, 0x1b, 0x25, 0x3c,
    0xdf, 0x76, 0xdd, 0x3d, 0xbb, 0x96, 0xf5, 0x3d, 0x35, 0x86, 0xbd, 0x3c,
    0x9f, 0xa7, 0x02, 0xbe, 0x44, 0xac, 0xb8, 0xbd, 0x9e, 0xd5, 0x72, 0x3e,
    0x08, 0x38, 0x1a, 0xbe, 0x89, 0xef, 0x06, 0xbf, 0x62, 0xfb, 0xc2, 0xbe,
    0xe0, 0x98, 0x72, 0x3e, 0x85, 0x5c, 0xa8, 0xbe, 0x81, 0x4d, 0x93, 0xbe,
    0xe1, 0xcc, 0x62, 0xbe, 0xf3, 0x38, 0xf5, 0x3d, 0x6c, 0x42, 0x0e, 0xbe,
    0xc0, 0xa6, 0x9d, 0x3e, 0x7c, 0xa6, 0x1a, 0xbe, 0xfa, 0x8d, 0x54, 0x3e,
    0x05, 0xef, 0xc7, 0xbd, 0xd8, 0xc8, 0x5f, 0x3d, 0x1b, 0x6d, 0x0c, 0xbe,
    0x77, 0x53, 0x59, 0x3e, 0x92, 0x74, 0x88, 0xbe, 0x86, 0x2f, 0x97, 0x3e,
    0x9b, 0xa0, 0xef, 0x3c, 0x51, 0x9a, 0x37, 0xbe, 0xc5, 0xf2, 0x37, 0x3e,
    0x85, 0xc0, 0x89, 0x3d, 0x9f, 0x10, 0x20, 0x3d, 0xcf, 0x7f, 0x9b, 0xbd,
    0x8e, 0x45, 0x9d, 0xbd, 0x1d, 0x75, 0x59, 0x3e, 0xb9, 0xbf, 0xf9, 0x3d,
    0x62, 0x75, 0x09, 0xbe, 0x5f, 0x28, 0x51, 0xbd, 0x3b, 0x6a, 0x8b, 0xbe,
    0x5f, 0x67, 0x57, 0x3e, 0x1f, 0xbd, 0x0f, 0x3d, 0x8a, 0xe1, 0xb9, 0x3c,
    0x80, 0xe8, 0xf8, 0xbb, 0xc7, 0x07, 0x4f, 0xbd, 0x8d, 0xaa, 0x9d, 0x3d,
    0x42, 0x53, 0x08, 0xbd, 0xcb, 0xd5, 0x13, 0xbf, 0xef, 0x12, 0x81, 0xbe,
    0x0a, 0xe7, 0x2d, 0x3d, 0xe8, 0xe7, 0x74, 0x3c, 0x6c, 0xfd, 0xbc, 0x3d,
    0x2a, 0xb1, 0x04, 0x3e, 0xd6, 0xff, 0xd9, 0x3d, 0xa0, 0x52, 0x10, 0x3e,
    0x75, 0x39, 0x8d, 0xbe, 0x95, 0x76, 0xca, 0xbc, 0xd0, 0x08, 0xd1, 0xbe,
    0x64, 0xbc, 0x11, 0x3e, 0xb6, 0x59, 0x7c, 0x3e, 0x52, 0x69, 0x39, 0xbe,
    0xbc, 0x39, 0xfe, 0x3a, 0x84, 0xb7, 0x7c, 0xbe, 0xf0, 0xa3, 0x8d, 0x3a,
    0x96, 0x82, 0x1d, 0x3e, 0xdd, 0x19, 0xf5, 0xbd, 0x09, 0xb7, 0xeb, 0x3d,
    0x87, 0xf7, 0x69, 0xbe, 0xb5, 0x2d, 0x9c, 0x3d, 0x81, 0x79, 0xe4, 0xbe,
    0x09, 0xb0, 0x97, 0x3d, 0x5a, 0xa3, 0xa0, 0x3e, 0x83, 0xa4, 0x10, 0xbe,
    0xc0, 0xb2, 0x60, 0xbe, 0x1c, 0x68, 0x86, 0xbe, 0x51, 0x56, 0xb0, 0xbc,
    0x27, 0x95, 0xdc, 0x3d, 0x33, 0x21, 0x61, 0xbd, 0x12, 0x6b, 0x9d, 0xbd,
    0x74, 0xed, 0xc0, 0x3e, 0xf2, 0xe6, 0x69, 0xbd, 0xb2, 0x89, 0x55, 0x3e,
    0xfd, 0x86, 0x37, 0xbe, 0x24, 0x45, 0x50, 0x3d, 0x21, 0xb7, 0x44, 0xbe,
    0xfc, 0x44, 0xd1, 0xbe, 0x18, 0xdb, 0x50, 0x3e, 0xa5, 0xe6, 0x04, 0xbe,
    0x00, 0x48, 0x6b, 0xbc, 0x1e, 0x61, 0x14, 0x3e, 0x08, 0xce, 0xe9, 0x3d,
    0x81, 0x26, 0x3f, 0x3e, 0x8e, 0x7d, 0x12, 0x3e, 0xa3, 0x5c, 0x94, 0xbd,
    0x02, 0xe4, 0x65, 0x3e, 0x24, 0xd2, 0x80, 0xbe, 0xc5, 0x3d, 0x62, 0xbe,
    0xa0, 0xa5, 0xd8, 0xbe, 0xe0, 0x30, 0x09, 0x3e, 0xc7, 0x6a, 0x32, 0x3e,
    0xc2, 0x75, 0x87, 0xbe, 0x72, 0xda, 0x29, 0xbe, 0x77, 0x1c, 0x89, 0xbe,
    0xbd, 0xd5, 0xd5, 0xbd, 0x28, 0x99, 0xa3, 0x3d, 0xf6, 0x17, 0xb4, 0x3d,
    0x57, 0x7b, 0x16, 0xbe, 0xa9, 0x65, 0x9d, 0x3d, 0x07, 0x15, 0xdf, 0x3d,
    0x68, 0x74, 0x83, 0x3e, 0x67, 0x59, 0xa0, 0x3e, 0x7b, 0x1c, 0x64, 0xbd,
    0xd9, 0xff, 0xb8, 0xbc, 0x2a, 0xf3, 0x38, 0xbd, 0x99, 0x07, 0x85, 0xbd,
    0xec, 0x09, 0x38, 0xbe, 0x11, 0x0d, 0xa8, 0x3e, 0xb7, 0x2f, 0x14, 0x3e,
    0x8f, 0x18, 0x46, 0xbd, 0x72, 0x8d, 0x4d, 0xbe, 0xfa, 0xc2, 0xd4, 0xbe,
    0x46, 0xe1, 0x31, 0x3e, 0xd7, 0x54, 0xdc, 0x3d, 0xc3, 0x4f, 0x68, 0x3e,
    0x28, 0xe7, 0xac, 0x3d, 0xd9, 0x0e, 0x40, 0xbd, 0x72, 0xaa, 0xc5, 0x3d,
    0x6a, 0xf5, 0xbb, 0xbd, 0x0c, 0x04, 0x83, 0x3d, 0xa7, 0x96, 0x0b, 0xbe,
    0x15, 0xaf, 0xda, 0x3d, 0x01, 0x83, 0x7d, 0xbe, 0x1c, 0xc7, 0x14, 0xbd,
    0x91, 0xdb, 0xd0, 0xbd, 0x3b, 0xfa, 0x1e, 0xbe, 0x85, 0xe3, 0xca, 0x3d,
    0xad, 0x59, 0xc5, 0x3c, 0x0d, 0x01, 0x94, 0xbd, 0xdb, 0x5d, 0xa0, 0xbd,
    0xf6, 0x99, 0x96, 0x3d, 0x2e, 0xfb, 0x71, 0xbd, 0x82, 0xf3, 0xc4, 0xbd,
    0x18, 0x70, 0x84, 0x3d, 0x59, 0x29, 0x01, 0x3e, 0x29, 0x63, 0xa1, 0x3e,
    0x20, 0xf7, 0xb2, 0xbc, 0x13, 0xa8, 0xd9, 0xbe, 0x67, 0x49, 0x2d, 0x3d,
    0x49, 0xde, 0x0a, 0xbe, 0x38, 0x55, 0x9f, 0xbe, 0x23, 0x81, 0x94, 0xbe,
    0x80, 0x9b, 0x80, 0x3e, 0xb5, 0x98, 0x52, 0x3e, 0x59, 0x51, 0x86, 0x3d,
    0xc2, 0x38, 0xb0, 0xbd, 0x37, 0xfc, 0xd7, 0x3b, 0xf2, 0xab, 0x25, 0x3e,
    0xea, 0x6c, 0xbc, 0x3e, 0xff, 0x57, 0xcb, 0xbd, 0x22, 0x0e, 0x19, 0xbe,
    0xf4, 0xf1, 0x8d, 0x3d, 0x52, 0xc9, 0x16, 0x3e, 0x69, 0x10, 0xd9, 0xbe,
    0xb7, 0xc7, 0xb0, 0x3e, 0x21, 0x5e, 0x46, 0x3d, 0x64, 0xde, 0x2c, 0xbd,
    0xce, 0x8f, 0xab, 0xbd, 0x75, 0xdb, 0x79, 0xbe, 0x4a, 0x87, 0x5b, 0xbe,
    0x68, 0xb6, 0x69, 0xbe, 0xbe, 0xb1, 0xfa, 0x3c, 0x9e, 0xde, 0x37, 0x3d,
    0x96, 0x9c, 0x08, 0x3d, 0x98, 0x48, 0xb4, 0xbc, 0xda, 0xb9, 0x83, 0xbe,
    0x36, 0x19, 0x14, 0xbd, 0x1f, 0xab, 0x91, 0x3d, 0x91, 0x25, 0xa7, 0xbd,
    0x01, 0xa2, 0xe2, 0x3d, 0x4f, 0x1a, 0x13, 0xbe, 0x9f, 0x96, 0x50, 0x3e,
    0x2a, 0xd6, 0xd9, 0x3c, 0x45, 0xba, 0x4e, 0x3e, 0x25, 0x7a, 0x62, 0xbd,
    0xee, 0xce, 0x7a, 0x3e, 0x19, 0x96, 0x23, 0xbe, 0xef, 0xc1, 0x82, 0xbe,
    0xfa, 0x10, 0x38, 0xbe, 0x87, 0x89, 0x85, 0xbe, 0xe8, 0xdd, 0x29, 0xbe,
    0x9e, 0x38, 0x45, 0x3e, 0x65, 0xda, 0x2f, 0xbe, 0xb7, 0x2e, 0x8d, 0xbd,
    0x26, 0xe9, 0x8d, 0xbe, 0x18, 0x30, 0x8e, 0x3e, 0x25, 0x87, 0x28, 0xbe,
    0xce, 0x2d, 0x78, 0x3e, 0xd8, 0x52, 0x2a, 0xbe, 0x4a, 0x99, 0x0d, 0x3d,
    0xfd, 0xc3, 0xc0, 0x3e, 0x4c, 0xc3, 0x2a, 0x3d, 0xbb, 0xf7, 0x13, 0x3e,
    0x4a, 0xb4, 0x04, 0xbe, 0x5b, 0x14, 0x3b, 0xbe, 0x85, 0xaa, 0x30, 0xbd,
    0x5f, 0xa5, 0xbf, 0xbe, 0x8e, 0xbf, 0xfe, 0x3d, 0x23, 0xce, 0xa3, 0x3d,
    0x91, 0x45, 0x7d, 0xbe, 0x56, 0x77, 0x08, 0xbe, 0xac, 0x55, 0xcb, 0x3b,
    0x69, 0x01, 0xb7, 0xbd, 0x30, 0x5e, 0xd0, 0x3d, 0xc1, 0xad, 0x1f, 0x3c,
    0xb4, 0xf8, 0x43, 0xbd, 0xb7, 0x19, 0x81, 0xbd, 0x79, 0x82, 0x9a, 0xbc,
    0x38, 0x6b, 0xe3, 0xbd, 0x33, 0x37, 0x16, 0xbf, 0xa1, 0x49, 0xc4, 0x3c,
    0xd2, 0x27, 0x04, 0x3e, 0xc3, 0x05, 0xe0, 0xbc, 0x98, 0x63, 0x74, 0x3d,
    0xaf, 0x90, 0x7a, 0x3e, 0x24, 0xcc, 0x04, 0x3e, 0x22, 0xed, 0x4e, 0xbd,
    0xc2, 0x31, 0xb7, 0xbe, 0xa4, 0xc5, 0x7e, 0x3e, 0x80, 0x24, 0xc1, 0xbd,
    0x54, 0x24, 0xef, 0x3c, 0x47, 0x87, 0xfc, 0xbc, 0x49, 0x71, 0x3b, 0x3e,
    0x43, 0x12, 0x23, 0xbd, 0x04, 0xa0, 0x86, 0x3e, 0x3e, 0x62, 0x0a, 0xbe,
    0xbf, 0x5f, 0x8f, 0xbe, 0xb9, 0xa5, 0xa4, 0xbd, 0x69, 0x85, 0x00, 0xbd,
    0xf4, 0xc4, 0xaf, 0xbc, 0x22, 0xc0, 0x7a, 0x3e, 0xbd, 0xc5, 0xa8, 0x3e,
    0xa5, 0x1c, 0x8c, 0x3d, 0x46, 0x3b, 0x22, 0x3e, 0x0c, 0x1e, 0x94, 0xbe,
    0x92, 0x03, 0x72, 0x3e, 0xeb, 0x40, 0x4e, 0x3d, 0xb3, 0x7a, 0x64, 0x3e,
    0x6a, 0x53, 0xf7, 0xbd, 0x2d, 0x0c, 0x8e, 0xbe, 0x38, 0xb1, 0x1f, 0x3b,
    0x73, 0x7a, 0x1c, 0x3d, 0x4f, 0x9d, 0xa0, 0x3d, 0x68, 0x3a, 0xdf, 0x3d,
    0xd7, 0xdb, 0x85, 0xbb, 0x34, 0x83, 0x1d, 0xbe, 0x45, 0x78, 0x07, 0x3e,
    0x54, 0xcb, 0xba, 0xbe, 0x6f, 0x1b, 0x18, 0xbe, 0xe6, 0x62, 0x64, 0x3e,
    0x35, 0x39, 0x84, 0x3e, 0x38, 0xb2, 0x4b, 0xbe, 0xc2, 0x41, 0x97, 0xbd,
    0xf3, 0xd8, 0x82, 0xbe, 0x69, 0xe5, 0xd3, 0xbd, 0x05, 0xfc, 0x42, 0x3e,
    0x4e, 0x97, 0xad, 0xbe, 0xc1, 0x12, 0x10, 0xbd, 0x11, 0x47, 0x44, 0xbc,
    0x82, 0x55, 0x14, 0xbe, 0xc2, 0xa9, 0x2a, 0x3e, 0x21, 0x2e, 0x70, 0x3e,
    0x45, 0x2f, 0xdf, 0xbe, 0x0b, 0xe2, 0x70, 0x3e, 0xbe, 0x77, 0x0a, 0x3e,
    0x98, 0x2e, 0x6e, 0x3e, 0xea, 0x0a, 0xc1, 0x3d, 0x17, 0xfb, 0xbc, 0x3b,
    0x1b, 0x59, 0x09, 0x3e, 0xb9, 0x3f, 0x38, 0xbe, 0x56, 0xf1, 0xaf, 0x3d,
    0x5f, 0x6b, 0x37, 0xbe, 0x34, 0xb0, 0x14, 0x3e, 0x06, 0x2e, 0x32, 0xbd,
    0x65, 0x32, 0x3d, 0xbe, 0x51, 0xc4, 0x39, 0x3e, 0xfd, 0x0d, 0xe1, 0x3e,
    0xaa, 0xe9, 0xe1, 0xbe, 0x70, 0x5b, 0x9c, 0xbe, 0x8b, 0x9e, 0xfe, 0x3d,
    0x54, 0xc9, 0x8c, 0xbe, 0xdf, 0x67, 0x33, 0xbe, 0x38, 0xa0, 0x4d, 0xbd,
    0xc8, 0xa6, 0xe2, 0x3d, 0x0b, 0x90, 0x64, 0xbe, 0xa9, 0x92, 0x62, 0xbd,
    0x9e, 0x51, 0x92, 0xbe, 0x38, 0x25, 0xd5, 0x3e, 0xaf, 0x23, 0x43, 0x3d,
    0x10, 0x41, 0xc2, 0x3d, 0x8a, 0x01, 0x46, 0xbe, 0x00, 0x06, 0x41, 0xbe,
    0xda, 0xf3, 0x2c, 0x3e, 0x9c, 0x85, 0x7b, 0xbc, 0x0d, 0x1f, 0xa6, 0xbd,
    0x50, 0xab, 0x8e, 0xbc, 0xd3, 0x8a, 0xc0, 0xbd, 0x10, 0x78, 0xe2, 0x3d,
    0x6a, 0x80, 0x2b, 0xbe, 0x7e, 0xba, 0xc1, 0x3b, 0x9b, 0x3f, 0x29, 0x3e,
    0x30, 0x87, 0x2e, 0x3a, 0xd8, 0x54, 0x0c, 0x3e, 0x92, 0x0e, 0x31, 0xbb,
    0xfc, 0x6a, 0x99, 0xbe, 0xd2, 0x70, 0x3e, 0xbd, 0x22, 0xf7, 0xb5, 0x3e,
    0x53, 0x68, 0x1a, 0x3e, 0xee, 0x60, 0x69, 0xbd, 0xde, 0xb4, 0x21, 0xbe,
    0xa7, 0x4d, 0xc7, 0xbd, 0x5d, 0xe2, 0x10, 0xbe, 0xaa, 0x9c, 0xa1, 0x3d,
    0x6c, 0x92, 0x62, 0x3d, 0xe1, 0xc2, 0x23, 0xbe, 0x79, 0xe3, 0x30, 0x3e,
    0xc8, 0x53, 0xb8, 0xbe, 0x19, 0x3a, 0x48, 0xbd, 0x0a, 0x9a, 0x16, 0xbe,
    0x29, 0x78, 0x0c, 0xbe, 0x36, 0x26, 0x7e, 0x3e, 0x2f, 0x83, 0x29, 0x3d,
    0x3e, 0x4a, 0x2c, 0x3e, 0xf3, 0x8c, 0x49, 0x3e, 0xf7, 0x7b, 0xd0, 0x3d,
    0x8c, 0x6a, 0x07, 0xbe, 0xd4, 0x58, 0x5c, 0x3e, 0xca, 0x87, 0x8e, 0xbe,
    0x5f, 0x33, 0xd3, 0x3e, 0xb7, 0x17, 0xc1, 0xbe, 0xaf, 0x25, 0x10, 0x3e,
    0xd5, 0x42, 0x33, 0x3d, 0xe7, 0x1b, 0xcc, 0xbd, 0x50, 0x0a, 0xdb, 0xbd,
    0x7e, 0x3e, 0x4d, 0xbe, 0x55, 0xf0, 0x0a, 0xbd, 0xa0, 0x3d, 0xdd, 0x3d,
    0x38, 0x84, 0xb0, 0x3d, 0xbf, 0x73, 0xf1, 0x3d, 0xf4, 0x43, 0x44, 0x3e,
    0x8e, 0x66, 0xe1, 0xbc, 0x75, 0xb3, 0x8b, 0xbe, 0x62, 0x66, 0x03, 0xbe,
    0x88, 0x11, 0x21, 0xbe, 0xa3, 0x1f, 0x26, 0xbe, 0xca, 0x0f, 0x1d, 0x3e,
    0x1f, 0x15, 0xc4, 0xbe, 0xaa, 0x4c, 0x05, 0x3e, 0x19, 0xf4, 0xc9, 0xbd,
    0x4c, 0x54, 0x04, 0xbe, 0xc5, 0xab, 0xe2, 0x3d, 0xc2, 0x40, 0x2c, 0xbe,
    0x53, 0xe2, 0xa6, 0xbd, 0x4f, 0xe0, 0xf2, 0x3d, 0x58, 0x8f, 0x7e, 0x3e,
    0x3a, 0x9e, 0x22, 0xbe, 0x30, 0x74, 0x72, 0xbb, 0x9b, 0x2a, 0x3a, 0x3d,
    0x25, 0xee, 0x26, 0x3e, 0xa5, 0x7f, 0x4a, 0xbd, 0x09, 0x98, 0x3b, 0xbd,
    0xd0, 0x74, 0x5d, 0xbe, 0x97, 0x01, 0x67, 0xbe, 0x01, 0xd0, 0x72, 0xbe,
    0xeb, 0xdd, 0x9c, 0xbe, 0x42, 0xa2, 0xc9, 0xbd, 0x37, 0x81, 0x98, 0x3d,
    0x0e, 0x53, 0xf6, 0xba, 0x13, 0x41, 0x60, 0x3e, 0x1f, 0xc5, 0x5b, 0xbe,
    0xda, 0xe7, 0xea, 0x3d, 0x2f, 0x4b, 0xb2, 0x3e, 0xec, 0xb6, 0xb3, 0x3e,
    0x27, 0x51, 0x76, 0xbe, 0xb1, 0xd2, 0x14, 0xbe, 0x8c, 0x40, 0x22, 0x3e,
    0x52, 0xfd, 0x84, 0x3e, 0x87, 0x7f, 0xf8, 0x3a, 0x48, 0x04, 0x20, 0xbd,
    0x65, 0x4c, 0x40, 0xbc, 0x8a, 0xa6, 0x64, 0xbe, 0x3c, 0xeb, 0xbe, 0xbd,
    0xe2, 0x28, 0x8f, 0xbd, 0xe9, 0x7a, 0x82, 0xbd, 0x34, 0x68, 0xf2, 0xbd,
    0x8e, 0x15, 0xa8, 0x3d, 0x5c, 0xb5, 0xb1, 0x3d, 0x28, 0x7c, 0xc0, 0x3d,
    0xb9, 0x62, 0x3d, 0xbe, 0x7a, 0x2b, 0xc9, 0xbd, 0x8b, 0x86, 0x97, 0x3e,
    0xa7, 0x8a, 0x62, 0xbe, 0xc0, 0x3e, 0xcb, 0x3d, 0xbd, 0x07, 0x2b, 0xbe,
    0xc7, 0x12, 0xa2, 0xbd, 0x13, 0x73, 0x56, 0xbe, 0x92, 0x9f, 0xb1, 0xba,
    0x5c, 0x26, 0x11, 0x3e, 0x39, 0x5d, 0xf1, 0x3c, 0xce, 0x64, 0x66, 0x3e,
    0x0c, 0xc7, 0x9b, 0x3d, 0x63, 0x30, 0xf7, 0xbd, 0xb2, 0x77, 0x90, 0x3e,
    0xa9, 0x61, 0x1d, 0x3e, 0x85, 0x73, 0x1b, 0x3e, 0x9b, 0xd8, 0x85, 0xbd,
    0x09, 0xa2, 0xe6, 0x3b, 0xec, 0xe5, 0x20, 0xbe, 0xdc, 0x4a, 0x05, 0x3e,
    0xc1, 0x07, 0x66, 0xbe, 0x66, 0x23, 0x14, 0x3d, 0xef, 0x82, 0x93, 0xbd,
    0x1e, 0x61, 0x7b, 0xbc, 0x36, 0x77, 0x80, 0xbd, 0xa2, 0x76, 0x64, 0xbe,
    0x1d, 0x27, 0xa4, 0xbe, 0xdd, 0xfe, 0x87, 0xbd, 0xaf, 0xd5, 0xc4, 0x3e,
    0x8a, 0x70, 0xf5, 0xbd, 0x6f, 0x8a, 0x15, 0x3e, 0x30, 0x76, 0x75, 0xbb,
    0x24, 0xc9, 0x95, 0x3c, 0x7b, 0x9d, 0xdc, 0xbc, 0x68, 0x9e, 0xcb, 0x3d,
    0x42, 0x02, 0x38, 0x3e, 0x3f, 0x9b, 0x7d, 0xbe, 0x4e, 0xbc, 0x7e, 0x3d,
    0x36, 0x5e, 0x56, 0xbe, 0x24, 0x26, 0x69, 0x3d, 0xbf, 0xb7, 0x43, 0x3d,
    0xdb, 0x77, 0xf6, 0x3d, 0xf3, 0x0c, 0x9e, 0xbe, 0x7f, 0xce, 0xd1, 0x3d,
    0xed, 0xaf, 0xa2, 0xbd, 0xcb, 0xd1, 0x04, 0xbe, 0x94, 0x7d, 0xe5, 0x3d,
    0x48, 0xd0, 0x9f, 0x3d, 0x4a, 0x85, 0x1c, 0xbe, 0x36, 0x35, 0xa2, 0xbd,
    0x9c, 0x7f, 0x2a, 0xbd, 0xd4, 0x05, 0xf0, 0xbd, 0x88, 0x4a, 0x62, 0xbd,
    0x86, 0x0a, 0x1b, 0xbe, 0x10, 0xa8, 0x6a, 0x3d, 0x5c, 0x26, 0x70, 0xbe,
    0x6a, 0x60, 0x37, 0xbe, 0x88, 0x41, 0x31, 0xbd, 0xbc, 0xaf, 0xe2, 0x3d,
    0x2c, 0xeb, 0x27, 0xbe, 0xa4, 0x1b, 0xed, 0xbd, 0x80, 0xbe, 0x9f, 0xbd,
    0xb8, 0x28, 0x36, 0xbd, 0xd8, 0x80, 0x28, 0xbd, 0x64, 0x86, 0x64, 0xbe,
    0xd8, 0xc7, 0x68, 0xbe, 0x5b, 0x00, 0x34, 0xbe, 0x52, 0xd9, 0x6c, 0x3e,
    0x96, 0x9f, 0xae, 0xbd, 0x18, 0x56, 0x02, 0xbe, 0x40, 0x3e, 0xdf, 0xbc,
    0x90, 0xb7, 0xb7, 0x3d, 0x5a, 0x3e, 0x5d, 0xbe, 0x58, 0x0b, 0xa5, 0xbd,
    0x53, 0xa4, 0x6f, 0xbe, 0x00, 0xa0, 0x83, 0xb9, 0x60, 0xc5, 0xb3, 0x3d,
    0xe0, 0xdb, 0x03, 0x3c, 0xd6, 0xd5, 0xce, 0xbd, 0xc8, 0xc3, 0x3b, 0xbe,
    0x90, 0xd6, 0x0d, 0x3c, 0x88, 0x6d, 0x67, 0x3d, 0x2e, 0xcd, 0x8d, 0xbd,
    0xdf, 0x2e, 0x6d, 0xbe, 0xc0, 0x55, 0xa6, 0x3c, 0xad, 0xa8, 0x4a, 0xbd,
    0x7a, 0xb0, 0x6d, 0x3e, 0x84, 0x61, 0x62, 0xbd, 0x10, 0xb0, 0xc9, 0xba,
    0x07, 0x45, 0x08, 0x3e, 0xe0, 0x3c, 0x0f, 0xbe, 0x3e, 0x12, 0x69, 0xbe,
    0x7b, 0x6d, 0xae, 0xbe, 0xbb, 0x62, 0x23, 0xbd, 0x86, 0x58, 0x0f, 0x3e,
    0xe2, 0x94, 0x53, 0x3e, 0xac, 0x08, 0xb5, 0x3e, 0x44, 0xfa, 0xc6, 0xbe,
    0x5c, 0x5c, 0xbf, 0xbe, 0x7c, 0xf5, 0x98, 0xbb, 0x60, 0x31, 0x95, 0xbe,
    0xa6, 0xf6, 0x27, 0xbe, 0x5d, 0xb1, 0x95, 0xbe, 0x13, 0x80, 0x47, 0x3e,
    0x27, 0x1b, 0x16, 0x3e, 0x95, 0x01, 0xac, 0xbe, 0xc2, 0x15, 0xfb, 0xbe,
    0x65, 0x66, 0x2a, 0xbc, 0x3b, 0xd9, 0xca, 0x3b, 0x89, 0x0c, 0x69, 0xbe,
    0xcd, 0x35, 0xd4, 0x3c, 0x00, 0x66, 0x06, 0x3e, 0xf2, 0x51, 0xcf, 0xbc,
    0x04, 0xc6, 0x45, 0x3d, 0x16, 0xdf, 0xca, 0xbd, 0x4f, 0x8a, 0x55, 0x3e,
    0x52, 0x53, 0x66, 0x3d, 0x2e, 0x89, 0x89, 0xbe, 0x49, 0xd5, 0xe9, 0x3d,
    0xc4, 0xe4, 0x8e, 0x3e, 0xe0, 0x61, 0x96, 0xbe, 0x9c, 0x82, 0x86, 0xbc,
    0x94, 0x6d, 0x98, 0x3e, 0x7b, 0xa3, 0x5d, 0x3d, 0xc0, 0x3e, 0xb2, 0x3d,
    0x09, 0x23, 0x99, 0x3d, 0xc7, 0xd2, 0x83, 0xbe, 0xe0, 0x02, 0xbf, 0x3c,
    0x7b, 0x94, 0x5a, 0x3d, 0xcb, 0xbc, 0x30, 0x3d, 0xb1, 0x9b, 0xeb, 0xbc,
    0xdc, 0x62, 0xa9, 0xbd, 0x8d, 0x50, 0x5c, 0xbe, 0xa3, 0xd2, 0x17, 0xbe,
    0xcb, 0x02, 0x3b, 0xbe, 0x93, 0xb3, 0x9a, 0xbe, 0x99, 0xa4, 0x66, 0xbe,
    0x54, 0x15, 0x96, 0x3d, 0x8a, 0xe7, 0xe4, 0x3d, 0x35, 0xec, 0x08, 0xbe,
    0x34, 0x40, 0x08, 0xbd, 0x35, 0x9b, 0x81, 0xbe, 0xe2, 0xe2, 0x92, 0xbd,
    0x2d, 0xe2, 0x45, 0x3e, 0xd0, 0x16, 0x96, 0xbd, 0x6f, 0x4a, 0x90, 0x3e,
    0x0c, 0x79, 0xf4, 0x3d, 0x5d, 0x6c, 0xb4, 0xbe, 0x9d, 0x13, 0x07, 0xbd,
    0xd0, 0xd7, 0x08, 0x3d, 0xb3, 0x16, 0xb6, 0xbe, 0x3a, 0x22, 0xd4, 0xbc,
    0x24, 0xc8, 0x91, 0x3c, 0x23, 0xc6, 0x29, 0xbf, 0x3f, 0xb7, 0x09, 0xbe,
    0x50, 0xff, 0xfe, 0x3d, 0x08, 0x16, 0xc5, 0x3d, 0x19, 0x9f, 0x4f, 0x3e,
    0x77, 0x65, 0xa3, 0x3e, 0xb5, 0x4c, 0xe3, 0x3d, 0xe4, 0xbf, 0x39, 0x3e,
    0xaf, 0xca, 0xa1, 0xbe, 0x73, 0x57, 0x18, 0xbc, 0xf3, 0x3d, 0xd5, 0x3e,
    0x3b, 0x22, 0x2a, 0xbd, 0x9a, 0xf2, 0xb5, 0xbe, 0x98, 0x9c, 0x4d, 0xbb,
    0xf2, 0xf6, 0x35, 0x3e, 0x11, 0xd3, 0x83, 0x3c, 0xd9, 0x97, 0x31, 0xbe,
    0x9a, 0x4e, 0xb5, 0xbe, 0x1a, 0xac, 0xd3, 0x3d, 0xa6, 0x8c, 0xfa, 0x3d,
    0x66, 0xfb, 0x1f, 0x3d, 0x48, 0xc9, 0x01, 0xbd, 0x72, 0xa0, 0x7e, 0x3e,
    0xf9, 0x78, 0x6d, 0x3e, 0x7e, 0x64, 0xe5, 0xbd, 0x6d, 0xdb, 0x82, 0xbd,
    0x51, 0x00, 0xa9, 0xbc, 0xb8, 0x89, 0x10, 0xbe, 0x21, 0x9c, 0x91, 0x3e,
    0xe9, 0xf9, 0x67, 0xbd, 0xd8, 0xfd, 0xa2, 0x3e, 0xee, 0xfe, 0x02, 0xbe,
    0x29, 0xf7, 0xdf, 0x3d, 0xb0, 0x60, 0xbb, 0x3d, 0x9c, 0xbf, 0xbc, 0x3e,
    0x13, 0xd9, 0xed, 0xbd, 0x25, 0xb6, 0xf3, 0xbe, 0x5a, 0xdb, 0x3a, 0xbe,
    0xc1, 0x7d, 0x8a, 0xbe, 0xb3, 0xa5, 0xe7, 0x3d, 0x18, 0x5e, 0xb0, 0xbe,
    0x15, 0x74, 0x05, 0x3c, 0x7e, 0x77, 0xa3, 0xbd, 0x06, 0xe3, 0x59, 0xbe,
    0x0b, 0x23, 0x86, 0xbe, 0x74, 0x5a, 0x17, 0x3e, 0xa7, 0xaf, 0xab, 0xbe,
    0x39, 0x5f, 0x89, 0x3e, 0x05, 0xed, 0x89, 0xbe, 0x1c, 0x61, 0xe9, 0x3d,
    0xdc, 0x55, 0x16, 0xbe, 0x65, 0x5c, 0xc8, 0xbd, 0x95, 0x85, 0x17, 0x3b,
    0x3e, 0x12, 0x4d, 0x3b, 0xa4, 0xaa, 0x7e, 0xbd, 0x83, 0xb6, 0x0e, 0xbe,
    0x3a, 0x32, 0x09, 0xbe, 0x78, 0x91, 0x4c, 0x3e, 0x6b, 0x13, 0xb8, 0xbd,
    0xeb, 0x4e, 0x03, 0x3e, 0xd7, 0x1f, 0x13, 0xbe, 0x26, 0xb3, 0xb9, 0x3d,
    0x4c, 0x76, 0xea, 0x3c, 0x09, 0xe3, 0xa1, 0xbd, 0xa7, 0x19, 0x92, 0xbd,
    0x91, 0x22, 0xe3, 0xbc, 0xc2, 0x7e, 0x86, 0xbe, 0xca, 0xd5, 0x25, 0x3d,
    0x3a, 0xcf, 0x3a, 0xbe, 0x62, 0x41, 0x5d, 0xbe, 0xd8, 0xe8, 0xeb, 0xbd,
    0xbb, 0x89, 0x93, 0xbe, 0x86, 0x69, 0x30, 0xbe, 0x6a, 0x36, 0x8d, 0x3e,
    0x76, 0x2d, 0x7e, 0x3d, 0xaa, 0xef, 0x7d, 0x3e, 0xd3, 0xfb, 0x99, 0x3c,
    0xea, 0x03, 0x82, 0x3d, 0x30, 0x26, 0x29, 0x3e, 0x81, 0x41, 0x17, 0xbe,
    0xae, 0x4e, 0x72, 0xbd, 0xf7, 0xa1, 0x05, 0xbd, 0xeb, 0x10, 0x89, 0x3e,
    0x2f, 0xa8, 0xa5, 0xbd, 0x45, 0xfa, 0x27, 0xbd, 0x73, 0x69, 0x11, 0x3d,
    0x61, 0x52, 0xc0, 0xbd, 0xee, 0xa5, 0xa2, 0x3e, 0xd0, 0x9f, 0x9c, 0x3e,
    0x33, 0x0a, 0x0f, 0xbe, 0xb4, 0xb8, 0xce, 0xbe, 0x38, 0x19, 0xed, 0x3c,
    0x81, 0x30, 0xf1, 0x3c, 0xe7, 0xe3, 0x33, 0xbe, 0xbc, 0xc3, 0x54, 0x3e,
    0x13, 0xf9, 0x1b, 0xbd, 0xda, 0x9c, 0xc2, 0xbd, 0x27, 0x87, 0x74, 0xbe,
    0x1d, 0xf5, 0x32, 0x3e, 0xbc, 0x06, 0x81, 0xbe, 0xd2, 0x9a, 0x3c, 0x3d,
    0x64, 0x1d, 0x4d, 0x3e, 0xc8, 0x31, 0x2c, 0xbe, 0x19, 0x22, 0x3d, 0x3d,
    0x7f, 0x5b, 0xe4, 0xbd, 0xd7, 0xa5, 0x82, 0xbd, 0xe2, 0xfe, 0x3c, 0x3e,
    0x02, 0xec, 0xa3, 0x3d, 0xcb, 0x39, 0x17, 0xbf, 0x9c, 0xeb, 0x0e, 0xbe,
    0x2f, 0x3c, 0x9a, 0xbe, 0x7f, 0x81, 0x26, 0xbe, 0x45, 0xb2, 0xad, 0xbe,
    0x7f, 0xa5, 0x3a, 0x3d, 0xe8, 0x1f, 0x08, 0xbd, 0xfb, 0x2b, 0x09, 0x3f,
    0x1b, 0x15, 0xeb, 0x3c, 0xbc, 0xe1, 0x41, 0x3d, 0x46, 0x12, 0xef, 0x3d,
    0xcc, 0x8d, 0x7c, 0xbe, 0x49, 0xc8, 0x3c, 0x3e, 0xb4, 0xd2, 0x83, 0xbe,
    0xfb, 0x5b, 0x4f, 0x3c, 0x94, 0xcd, 0x40, 0xbb, 0x29, 0x47, 0x81, 0xbd,
    0x63, 0x59, 0xe4, 0xbd, 0x17, 0xc3, 0xfe, 0xbd, 0x7a, 0x9d, 0xda, 0xbe,
    0x6c, 0x34, 0xda, 0x3e, 0xc9, 0x74, 0xc1, 0xbd, 0x2a, 0x01, 0x17, 0xbc,
    0xf4, 0x1c, 0x41, 0x3e, 0x73, 0x5e, 0xac, 0x3c, 0xcd, 0xa5, 0x84, 0xbe,
    0xd4, 0x48, 0x42, 0x3c, 0x07, 0x20, 0x88, 0xbe, 0x5f, 0x41, 0xc8, 0xbd,
    0xbc, 0x30, 0x86, 0xbe, 0xf9, 0xdd, 0x08, 0x3b, 0x60, 0x25, 0x8a, 0x3d,
    0x04, 0x43, 0x49, 0x3e, 0x68, 0x87, 0xab, 0xbd, 0xa9, 0x01, 0xab, 0xbd,
    0xe6, 0x7f, 0xb9, 0x3b, 0x19, 0xc5, 0x12, 0x3e, 0xc2, 0x29, 0x1e, 0x3e,
    0xd6, 0x6d, 0x30, 0xbe, 0x64, 0x93, 0x20, 0xbe, 0x16, 0xd3, 0x21, 0x3e,
    0x95, 0xe4, 0x4c, 0xbe, 0xca, 0x42, 0xb2, 0x3e, 0xd8, 0x7b, 0x02, 0x3e,
    0x8f, 0x93, 0x45, 0xbe, 0xb5, 0xf4, 0x83, 0xbe, 0x30, 0x52, 0x89, 0x3d,
    0x3d, 0x13, 0xc0, 0xbe, 0x7c, 0x6c, 0x04, 0x3e, 0x8a, 0x8b, 0x41, 0x3e,
    0xf6, 0xf4, 0xfb, 0xbe, 0x65, 0xd8, 0x26, 0x3d, 0xe5, 0x40, 0xa0, 0x3d,
    0x83, 0x63, 0x60, 0xbe, 0x7e, 0x10, 0x4e, 0xbe, 0x8b, 0xb0, 0x71, 0xbe,
    0x64, 0x49, 0x61, 0x3e, 0xc1, 0xff, 0xcb, 0x3d, 0x54, 0x94, 0x6f, 0x3d,
    0xbf, 0xd4, 0x06, 0x3e, 0x90, 0x1a, 0x49, 0x3e, 0xe3, 0xf0, 0xea, 0xbd,
    0x97, 0x56, 0xb2, 0x3e, 0x36, 0xb8, 0xab, 0xbd, 0xcb, 0xef, 0xd4, 0xbd,
    0x8f, 0x1d, 0xa3, 0xbd, 0xca, 0xa3, 0x9e, 0x3d, 0x83, 0xa2, 0x5e, 0xbe,
    0x14, 0xaa, 0x86, 0xbd, 0x71, 0xb0, 0xad, 0x3d, 0xff, 0x33, 0x51, 0x3d,
    0x9f, 0x82, 0xdd, 0xbd, 0x90, 0x14, 0xca, 0x3c, 0x2e, 0x7f, 0x9c, 0x3d,
    0x3e, 0xd0, 0x3a, 0xbe, 0x6f, 0xef, 0x6c, 0xbc, 0x20, 0x5c, 0x32, 0xbe,
    0xda, 0x01, 0xc4, 0xbe, 0x26, 0xdb, 0x0d, 0x3d, 0x81, 0x12, 0xb0, 0x3d,
    0x25, 0x71, 0xe8, 0x3c, 0xa3, 0x76, 0x95, 0xbc, 0xaf, 0x0f, 0xc2, 0x3d,
    0x55, 0x42, 0xfc, 0x3e, 0xe9, 0xe9, 0x67, 0x3e, 0xf1, 0x99, 0x26, 0x3e,
    0x90, 0x13, 0x48, 0x3d, 0x4d, 0x12, 0x4f, 0xbe, 0xd5, 0x8b, 0x6f, 0xbe,
    0xc0, 0xd6, 0x67, 0x3c, 0x10, 0x8e, 0x57, 0xbe, 0x06, 0xd6, 0x48, 0x3e,
    0xae, 0x7e, 0x36, 0x3e, 0x76, 0xf4, 0xb3, 0x3d, 0xfd, 0x8e, 0x5a, 0xbe,
    0x34, 0x0c, 0x46, 0xbe, 0xbf, 0x2f, 0xa7, 0xbd, 0xff, 0x1f, 0xf4, 0xbd,
    0xec, 0x3f, 0xd9, 0x3d, 0xbd, 0x76, 0x83, 0x3e, 0x61, 0x81, 0xa0, 0xbe,
    0xfb, 0xde, 0x55, 0x3e, 0x62, 0x86, 0x16, 0xbc, 0x4c, 0xfb, 0x6e, 0xbe,
    0xe2, 0xd2, 0x33, 0xbe, 0xb1, 0x43, 0x80, 0xbe, 0x0a, 0x32, 0x81, 0xbe,
    0x9f, 0x89, 0x7a, 0xbd, 0x34, 0x62, 0x2e, 0xbd, 0x31, 0x38, 0x3e, 0xbe,
    0xf2, 0x24, 0x8b, 0xbe, 0xcb, 0x1d, 0x5f, 0xbe, 0x91, 0x09, 0x74, 0xbe,
    0xc2, 0xe6, 0xc0, 0x3d, 0x3a, 0xe6, 0x2b, 0xbe, 0xb5, 0x13, 0x67, 0x3e,
    0xf2, 0xe8, 0x52, 0xbe, 0xa3, 0x3c, 0x60, 0x3d, 0x29, 0xa4, 0x03, 0xbf,
    0x95, 0x69, 0x44, 0x3e, 0x8a, 0xb6, 0x20, 0xbd, 0x06, 0xd8, 0x41, 0x3e,
    0x0e, 0x95, 0xaa, 0xbd, 0x67, 0x35, 0x2a, 0x3d, 0x6a, 0xda, 0xbc, 0x3d,
    0x52, 0xb4, 0x20, 0xbe, 0x3a, 0x0e, 0x9f, 0xbd, 0x4d, 0xa0, 0xa5, 0xbd,
    0x75, 0xa7, 0xb6, 0xbb, 0xbf, 0x17, 0x9f, 0x3e, 0xa4, 0xf3, 0xba, 0x3d,
    0x48, 0x3c, 0x91, 0x3e, 0xf7, 0xaf, 0xf4, 0xbd, 0x80, 0xfd, 0xc6, 0xbe,
    0xfe, 0xa6, 0x65, 0x3e, 0x1a, 0x28, 0xfe, 0x3d, 0x46, 0xe0, 0xb6, 0x3e,
    0x4d, 0x70, 0x11, 0x3e, 0x9e, 0x51, 0x88, 0x3e, 0xbc, 0x92, 0x13, 0xbe,
    0x0c, 0xee, 0x2d, 0x3e, 0xdd, 0xee, 0xd8, 0xbe, 0x74, 0x6a, 0xbe, 0xbc,
    0xbc, 0xe3, 0x41, 0xbe, 0xf4, 0x5d, 0xda, 0x3c, 0x09, 0xec, 0xe5, 0x3d,
    0x0a, 0xaf, 0xe2, 0xbc, 0xe8, 0xca, 0x88, 0xbe, 0x5e, 0xdf, 0x1c, 0xbe,
    0xab, 0x07, 0x0d, 0xbe, 0x7c, 0x84, 0xb3, 0x3d, 0x42, 0x95, 0x48, 0xbe,
    0x51, 0xc4, 0x4d, 0xbd, 0xd1, 0x78, 0x68, 0xbe, 0x58, 0xaf, 0x95, 0xbd,
    0xcc, 0x67, 0x96, 0xbd, 0x61, 0x10, 0x10, 0x3d, 0x93, 0xb6, 0xd8, 0xbd,
    0x0c, 0x31, 0xd6, 0x3d, 0x07, 0xfd, 0xa5, 0xbe, 0x86, 0xd8, 0x31, 0x3d,
    0xec, 0x36, 0x26, 0xbc, 0x19, 0xcc, 0x95, 0xbe, 0xa0, 0x79, 0x1d, 0x3d,
    0x4f, 0x27, 0x2a, 0x3d, 0x78, 0x4b, 0x24, 0xbd, 0x8f, 0xe2, 0x45, 0x3d,
    0xeb, 0x46, 0x02, 0x3e, 0x40, 0x51, 0x38, 0xbe, 0x0d, 0xea, 0xac, 0x3d,
    0x1e, 0x30, 0x8d, 0x3e, 0x55, 0x72, 0xcd, 0xbd, 0xaa, 0x98, 0x91, 0x3e,
    0x1d, 0x6e, 0x39, 0x3e, 0x3f, 0x22, 0x64, 0xbd, 0x8f, 0xf0, 0x3b, 0x3e,
    0x98, 0x79, 0xa5, 0x3e, 0x40, 0x04, 0xec, 0xbd, 0xb7, 0xe1, 0xdd, 0xbd,
    0x43, 0x3d, 0x31, 0x3e, 0xc4, 0x2e, 0x8e, 0x3e, 0x3a, 0xa9, 0xce, 0xbe,
    0xc3, 0xe5, 0xac, 0x3e, 0x1b, 0x7a, 0x30, 0xbe, 0xa2, 0x6d, 0x0e, 0xbe,
    0x96, 0x0b, 0x25, 0x3e, 0xc8, 0xf5, 0xc2, 0xbc, 0x38, 0x49, 0x65, 0xbd,
    0x4d, 0x36, 0x67, 0xbe, 0xaa, 0x96, 0x4e, 0x3e, 0x74, 0x91, 0x10, 0x3e,
    0x58, 0xf6, 0x21, 0xbe, 0xd0, 0xe5, 0xad, 0x3c, 0x00, 0x6b, 0x39, 0xbe,
    0x56, 0x37, 0x14, 0x3e, 0x78, 0x22, 0xa7, 0x3d, 0x96, 0xa9, 0x15, 0x3e,
    0xce, 0xe1, 0xb9, 0xbd, 0xef, 0xcb, 0x32, 0xbe, 0xb6, 0xa2, 0xae, 0xbd,
    0xf7, 0x20, 0x12, 0xbe, 0xd3, 0x49, 0x2f, 0xbe, 0x68, 0xcd, 0xeb, 0x3d,
    0x18, 0x18, 0x4a, 0x3d, 0x2b, 0x79, 0x4a, 0xbe, 0x42, 0xfb, 0x00, 0xbe,
    0x16, 0x6c, 0xa5, 0xbd, 0x00, 0xa9, 0xb9, 0xba, 0x38, 0x76, 0x48, 0xbd,
    0xf4, 0x79, 0x3b, 0xbe, 0x58, 0xc1, 0xd3, 0xbc, 0x0a, 0x4f, 0x11, 0x3e,
    0xce, 0x05, 0x21, 0xbe, 0x5e, 0x02, 0x3c, 0xbe, 0xd0, 0x70, 0xed, 0x3d,
    0x60, 0xea, 0xe9, 0xbb, 0x70, 0xd4, 0xe6, 0x3c, 0xce, 0xc7, 0x46, 0xbe,
    0x48, 0x9c, 0x64, 0xbd, 0x10, 0x13, 0x22, 0xbe, 0x93, 0x82, 0x0b, 0xbe,
    0xce, 0x1d, 0x45, 0xbe, 0x00, 0x74, 0xd9, 0x3d, 0xd6, 0x0e, 0xc4, 0xbd,
    0x12, 0x80, 0xc9, 0x3d, 0x5d, 0x71, 0x37, 0x3e, 0x7b, 0x18, 0xe6, 0x3d,
    0xe4, 0x93, 0x39, 0x3c, 0x37, 0xff, 0x8e, 0xbe, 0xf2, 0x47, 0x29, 0x3e,
    0x23, 0x84, 0xb2, 0xbe, 0x27, 0xeb, 0x32, 0xbd, 0x9c, 0x34, 0x2c, 0xbe,
    0x82, 0xf6, 0x1e, 0xbd, 0x50, 0xef, 0xc5, 0xbd, 0x57, 0xe6, 0xca, 0x3e,
    0x05, 0xc7, 0x6c, 0x3e, 0x28, 0x27, 0x42, 0xbd, 0x06, 0xe6, 0xdb, 0xbd,
    0xe7, 0xf1, 0x71, 0xbe, 0x05, 0xea, 0x89, 0x3c, 0x79, 0x47, 0x8e, 0x3d,
    0x68, 0x1e, 0x3a, 0xbe, 0x94, 0x56, 0x20, 0xbe, 0xa0, 0x6b, 0x38, 0x3e,
    0xf5, 0x81, 0xea, 0xbd, 0x85, 0x1b, 0x1d, 0x3e, 0xb1, 0x47, 0x51, 0xbe,
    0x08, 0xdf, 0xc0, 0xbd, 0x03, 0x31, 0xf7, 0x3d, 0x97, 0xc6, 0x3e, 0x3c,
    0xe4, 0x63, 0xff, 0x3b, 0xaa, 0xcd, 0x02, 0xbd, 0xa3, 0x87, 0xc8, 0x3d,
    0xaf, 0xd0, 0x7f, 0x3e, 0xe1, 0x10, 0x5b, 0x3d, 0x8c, 0x70, 0xbd, 0x3d,
    0x35, 0x58, 0xd8, 0xbd, 0x25, 0xd0, 0x91, 0x3d, 0xd1, 0x3d, 0x1a, 0x3d,
    0x45, 0x72, 0xf5, 0xbd, 0x82, 0x04, 0xe4, 0x3d, 0x3d, 0x84, 0x7e, 0x3d,
    0x1f, 0xc7, 0x9a, 0xbe, 0x42, 0x8c, 0xf7, 0x3c, 0xa2, 0xbe, 0x63, 0xbe,
    0x9c, 0x61, 0x6a, 0x3b, 0x25, 0x9d, 0x0b, 0x3d, 0x14, 0x0c, 0x33, 0xbd,
    0x90, 0x19, 0x4a, 0xbd, 0x80, 0x98, 0x35, 0x3d, 0x4f, 0xb2, 0xf2, 0x3d,
    0x81, 0xca, 0x5f, 0xbd, 0x04, 0xec, 0xa0, 0xbe, 0x8c, 0x1b, 0x31, 0x3d,
    0xbb, 0x14, 0x83, 0xbe, 0xd7, 0x14, 0xbc, 0x3e, 0x2c, 0x75, 0x8a, 0x3e,
    0xa0, 0xe9, 0x08, 0xbe, 0xff, 0x74, 0x17, 0x3b, 0xa9, 0x3f, 0xca, 0xbd,
    0xc2, 0x29, 0x57, 0x3e, 0xd7, 0x3e, 0x1f, 0xbe, 0x4d, 0x0d, 0x96, 0x3e,
    0x59, 0x22, 0x9d, 0x3d, 0x86, 0x06, 0xa8, 0x3c, 0x90, 0xe5, 0x23, 0x3e,
    0x56, 0x29, 0x33, 0x3e, 0x29, 0xca, 0xc6, 0xbe, 0x27, 0x2c, 0x35, 0xbe,
    0x57, 0x4e, 0x88, 0xbc, 0x0c, 0xde, 0x23, 0xbe, 0x1b, 0x6a, 0x15, 0x3d,
    0xb4, 0x72, 0x44, 0xbe, 0x8e, 0x53, 0x8c, 0x3c, 0x13, 0xe7, 0x53, 0xbe,
    0x69, 0x6a, 0xf4, 0xbe, 0x8a, 0x1f, 0x84, 0x3e, 0xce, 0x8e, 0x87, 0xbe,
    0x46, 0x7f, 0x91, 0x3e, 0xb0, 0xb9, 0x23, 0xbd, 0x15, 0x70, 0x71, 0xbe,
    0xd8, 0x00, 0xd8, 0xbd, 0x46, 0xad, 0x84, 0x3e, 0xe8, 0x3e, 0x66, 0x3e,
    0x8e, 0xa7, 0x95, 0xbe, 0xa5, 0x0c, 0xb2, 0xbd, 0xac, 0x78, 0xa2, 0x3d,
    0xb4, 0xb1, 0x77, 0xbe, 0x71, 0x65, 0x2a, 0xbe, 0xae, 0x51, 0x6c, 0xbc,
    0xa3, 0xb1, 0x62, 0x3e, 0x18, 0x2c, 0xa6, 0xbd, 0x44, 0x5e, 0xbd, 0xbd,
    0x1a, 0x1c, 0x82, 0xbd, 0x9c, 0xdb, 0x48, 0xbe, 0x8b, 0x28, 0x93, 0xbe,
    0x64, 0x4e, 0x71, 0xbe, 0x8f, 0x53, 0x8c, 0xbd, 0x6d, 0x1d, 0xd1, 0xbe,
    0x62, 0x12, 0x83, 0x3e, 0x02, 0x40, 0x55, 0xbd, 0xc6, 0x21, 0xd3, 0xbe,
    0xee, 0x02, 0x54, 0x3e, 0xde, 0x14, 0x25, 0x3d, 0x8d, 0xf3, 0xd6, 0x3d,
    0x38, 0x74, 0x45, 0xbe, 0xef, 0x3b, 0xb6, 0xbe, 0x4e, 0xa0, 0x33, 0x3e,
    0xa4, 0xf3, 0xb9, 0xbe, 0x01, 0xdb, 0xb9, 0x3d, 0x87, 0x05, 0x59, 0x3e,
    0xad, 0xab, 0xbd, 0x3e, 0x7c, 0x80, 0x22, 0x3e, 0x36, 0x66, 0xb8, 0x3c,
    0xb8, 0xe4, 0x25, 0xbd, 0x78, 0xc7, 0x00, 0x3e, 0xe4, 0x39, 0x98, 0x3e,
    0xee, 0x33, 0x3b, 0x3c, 0xd8, 0xb1, 0xc3, 0xbd, 0xb2, 0xc8, 0x87, 0x3d,
    0x1c, 0x72, 0x56, 0xbe, 0x95, 0xfd, 0xaf, 0x3d, 0x96, 0x2d, 0x3f, 0xbe,
    0xc8, 0x2b, 0x41, 0xbe, 0xe7, 0x81, 0x8a, 0x3c, 0x8e, 0x18, 0x58, 0x3d,
    0x4b, 0xca, 0x7f, 0xbe, 0x08, 0x9b, 0x84, 0x3e, 0x13, 0xdd, 0xb4, 0x3d,
    0x74, 0x30, 0x1d, 0xbe, 0xc3, 0x4a, 0xfb, 0xbd, 0xbe, 0x68, 0xbe, 0x3d,
    0x78, 0xd0, 0xf2, 0x3d, 0xd5, 0x2c, 0x51, 0xbe, 0x3f, 0x6e, 0x47, 0x3e,
    0x87, 0xd4, 0x11, 0xbe, 0xce, 0x77, 0x2c, 0x3d, 0x02, 0xb4, 0xd2, 0xbe,
    0xdf, 0xed, 0x34, 0xbc, 0x06, 0xde, 0x5c, 0xbe, 0x92, 0xbc, 0xa5, 0xbe,
    0x4e, 0xf8, 0x83, 0xbe, 0x92, 0x3b, 0x96, 0xbe, 0x0e, 0xdb, 0xd2, 0xbd,
    0xc6, 0x5b, 0x9a, 0x3e, 0xee, 0x51, 0x4e, 0xbe, 0xc7, 0x9d, 0xc8, 0x3d,
    0x24, 0x8f, 0x81, 0x3e, 0x31, 0xe3, 0xf8, 0x3d, 0x21, 0x23, 0x05, 0xbe,
    0x87, 0xad, 0x23, 0x3e, 0x75, 0x38, 0xc8, 0x3c, 0x04, 0xcb, 0x0d, 0x3e,
    0xb8, 0xc8, 0x82, 0x3e, 0x8e, 0x80, 0x02, 0xbe, 0x66, 0xea, 0x67, 0x3e,
    0x76, 0x39, 0x2c, 0x3e, 0x50, 0xfc, 0x3c, 0x3e, 0x02, 0x4d, 0xc3, 0x3d,
    0x92, 0xf6, 0xad, 0xbd, 0x42, 0x79, 0x21, 0x3e, 0xa2, 0x64, 0x8d, 0x3d,
    0xc0, 0x2d, 0xf6, 0xbd, 0x1b, 0x47, 0x30, 0xbd, 0x14, 0xd7, 0x70, 0xbd,
    0xb2, 0x71, 0xbf, 0x3d, 0x7c, 0x8b, 0x88, 0xbe, 0x69, 0xbf, 0x11, 0x3e,
    0x89, 0xc8, 0x60, 0xbd, 0x8d, 0x78, 0x80, 0x3e, 0xc3, 0x98, 0x20, 0xbe,
    0x25, 0x26, 0x08, 0xbe, 0x2b, 0xfc, 0xb3, 0xbe, 0x36, 0xbc, 0x4a, 0xbe,
    0xed, 0x4e, 0x93, 0xbb, 0x0a, 0x3f, 0x14, 0x3d, 0xeb, 0x09, 0x3c, 0x3c,
    0x10, 0x5b, 0xae, 0xbe, 0xa1, 0x53, 0x24, 0x3d, 0xb8, 0xc1, 0x27, 0x3b,
    0x4e, 0x68, 0x9c, 0x3e, 0xba, 0x25, 0x5a, 0xbe, 0x24, 0xd8, 0xd4, 0xbe,
    0x47, 0x7c, 0xd4, 0x3e, 0x2b, 0x2b, 0x8a, 0x3d, 0xf0, 0x3c, 0xaa, 0xbe,
    0x20, 0xd2, 0x6f, 0x3d, 0xfb, 0xae, 0x45, 0x3e, 0x3d, 0x0d, 0x4a, 0x3e,
    0x99, 0x5c, 0x57, 0x3d, 0x88, 0xa5, 0x56, 0x3e, 0x84, 0xbd, 0xa8, 0xbe,
    0x00, 0xd7, 0x89, 0xbe, 0xf7, 0x4e, 0xd9, 0xbd, 0x6a, 0xb5, 0x57, 0xbb,
    0xd6, 0xac, 0x5e, 0xbe, 0x17, 0xba, 0xc1, 0xbe, 0x65, 0xc9, 0x8c, 0xbd,
    0x00, 0xe6, 0x2b, 0x3e, 0xd1, 0x5d, 0xe7, 0x3d, 0xda, 0x86, 0x64, 0xbe,
    0x78, 0xfa, 0xcf, 0x3e, 0x76, 0x77, 0xe6, 0x3d, 0x46, 0x40, 0xcc, 0xbe,
    0xa5, 0xdb, 0xa7, 0x3d, 0xe2, 0x93, 0xa2, 0x3d, 0xdc, 0x48, 0x21, 0xbd,
    0xd7, 0xb1, 0xa2, 0xbd, 0x2b, 0x7b, 0x32, 0xbe, 0xb2, 0xd8, 0xc3, 0xbc,
    0x7d, 0xb0, 0x22, 0x3e, 0xdc, 0xd6, 0x23, 0x3e, 0x6b, 0xd0, 0x31, 0xbe,
    0x9b, 0xfc, 0x82, 0xbe, 0x60, 0xee, 0xff, 0x3c, 0x94, 0xd6, 0x8f, 0x3d,
    0x43, 0xbb, 0x1f, 0x3e, 0xcb, 0xb0, 0x37, 0xbe, 0x20, 0xfc, 0x4d, 0x3c,
    0x04, 0x90, 0x69, 0xbe, 0xd6, 0x7c, 0xf2, 0x3e, 0x7c, 0x07, 0x42, 0xbe,
    0xb1, 0x01, 0x27, 0x3e, 0x40, 0x61, 0x88, 0xbd, 0x09, 0x07, 0x71, 0x3d,
    0xc7, 0xa4, 0xd9, 0x3d, 0x1a, 0x02, 0x2d, 0xbe, 0x06, 0xf2, 0x57, 0xbe,
    0x4c, 0xa4, 0x95, 0xbe, 0x98, 0x13, 0x21, 0xbe, 0x2e, 0x2b, 0x38, 0x3e,
    0x1f, 0x53, 0x09, 0x3d, 0xb5, 0x24, 0xa3, 0xbd, 0x99, 0xf0, 0x18, 0x3d,
    0xd5, 0xf1, 0xe8, 0xbd, 0x7b, 0xee, 0x49, 0x3c, 0xa0, 0x25, 0x76, 0x3e,
    0xb5, 0x0f, 0x36, 0xba, 0x5b, 0x86, 0x52, 0x3e, 0xfe, 0xaa, 0x3a, 0xbe,
    0x09, 0x4a, 0x8f, 0x3e, 0x97, 0x39, 0x50, 0xbe, 0xa1, 0x16, 0x4e, 0x3e,
    0x55, 0x15, 0xd6, 0xbe, 0xbc, 0x37, 0xd4, 0xbc, 0xa5, 0x38, 0xd2, 0xbd,
    0x0a, 0x17, 0xdc, 0x3e, 0xf7, 0x61, 0x98, 0x3d, 0xce, 0xd2, 0xfe, 0xbd,
    0x2d, 0xf6, 0x04, 0xbc, 0x45, 0x9e, 0x8f, 0xbe, 0x05, 0x16, 0xb5, 0x3d,
    0x84, 0x0e, 0xa2, 0x3c, 0x03, 0xb4, 0x75, 0xbe, 0x35, 0x24, 0x88, 0x3d,
    0x92, 0xa8, 0xea, 0x3b, 0xc4, 0x28, 0x28, 0xbe, 0x2a, 0x2f, 0x65, 0xbe,
    0x0e, 0x1b, 0x3e, 0x3e, 0x9c, 0x58, 0x8f, 0x3e, 0x99, 0xd4, 0xb2, 0x3e,
    0xc4, 0x44, 0x30, 0x3e, 0x45, 0xa5, 0x8e, 0xbe, 0xa5, 0x01, 0xfd, 0xbd,
    0x6e, 0x9d, 0x96, 0xbd, 0x8e, 0x4c, 0x9b, 0x3e, 0x88, 0xc6, 0x11, 0xbe,
    0x99, 0xf1, 0x1b, 0xbd, 0x18, 0x48, 0xe3, 0x3c, 0x69, 0xce, 0xb1, 0xbe,
    0xa0, 0x38, 0x3d, 0xbe, 0xa7, 0x88, 0x59, 0x3d, 0x9d, 0x86, 0xbc, 0x3d,
    0xcb, 0xa9, 0x23, 0xbd, 0x48, 0xad, 0xcd, 0xbd, 0x0c, 0x95, 0x23, 0xbe,
    0xbc, 0x02, 0x0a, 0x3d, 0xf3, 0x69, 0x47, 0x3e, 0xfc, 0x73, 0x5c, 0xbd,
    0x7a, 0x9a, 0xa3, 0xbe, 0x99, 0x56, 0x49, 0x3e, 0xb8, 0xeb, 0xdd, 0x3d,
    0x31, 0x37, 0x18, 0xbe, 0x58, 0x46, 0x5d, 0xbe, 0x37, 0xd2, 0xae, 0xbd,
    0x16, 0xe5, 0xdc, 0xbd, 0x5f, 0x14, 0xd3, 0x3d, 0xaf, 0xc7, 0x8b, 0xbe,
    0xb6, 0xab, 0xf7, 0x3d, 0x5f, 0x8e, 0x50, 0xbe, 0xad, 0x74, 0x9f, 0xbe,
    0x20, 0x17, 0x66, 0x3e, 0xef, 0xc5, 0x78, 0xbe, 0x50, 0x9d, 0x9d, 0xbe,
    0xe9, 0xcf, 0x03, 0x3e, 0xd6, 0x89, 0x06, 0x3e, 0xe2, 0xc3, 0x39, 0xbd,
    0x68, 0xaa, 0x7b, 0xbd, 0xe4, 0x42, 0x9b, 0xbe, 0xfe, 0x18, 0xab, 0x3e,
    0xd1, 0x4e, 0x3b, 0xbd, 0xdf, 0x94, 0x07, 0x3e, 0xd1, 0x9a, 0xcb, 0x3e,
    0xd8, 0x6a, 0x21, 0xbd, 0x81, 0x41, 0xc9, 0xbc, 0xe8, 0xbe, 0x3b, 0x3e,
    0x38, 0x02, 0x3c, 0x3e, 0x4f, 0x85, 0xc6, 0xbd, 0x30, 0xe8, 0xeb, 0xbd,
    0xa6, 0x14, 0xcb, 0x3d, 0x0a, 0x0b, 0x34, 0x3e, 0xba, 0xaa, 0x72, 0xbe,
    0x58, 0x73, 0x80, 0x39, 0xd7, 0x24, 0x4b, 0xbe, 0x5a, 0x6b, 0xf2, 0xbe,
    0xac, 0x5f, 0x7c, 0x3d, 0x17, 0x51, 0x07, 0x3e, 0x9e, 0xdf, 0x71, 0x3e,
    0xe5, 0xbc, 0x66, 0xbe, 0xcb, 0x74, 0x3b, 0x3d, 0x6e, 0xcd, 0x69, 0xbe,
    0x57, 0x8f, 0x1a, 0x3d, 0x31, 0xd6, 0x2b, 0x3e, 0xc8, 0xcf, 0x5e, 0xbe,
    0x7a, 0xba, 0xa0, 0xbd, 0x35, 0x86, 0x23, 0x3b, 0xea, 0xb7, 0x56, 0x3e,
    0x51, 0x02, 0x86, 0x3e, 0xb4, 0x2d, 0x33, 0xbd, 0xad, 0x68, 0x58, 0xbb,
    0x6d, 0x76, 0x33, 0x3b, 0xa8, 0x0f, 0x11, 0x3e, 0xd5, 0x05, 0xf5, 0xbd,
    0xe4, 0xfa, 0x10, 0xbe, 0x0b, 0xc0, 0x30, 0xbe, 0x3c, 0x32, 0xdf, 0x3d,
    0xae, 0xa6, 0x39, 0xbd, 0x53, 0x4f, 0x74, 0x3d, 0x9f, 0xee, 0xdb, 0xbe,
    0x90, 0x41, 0x1a, 0xbd, 0xe5, 0x6a, 0xd7, 0x3d, 0xc2, 0xd1, 0x85, 0xbe,
    0x51, 0x51, 0x40, 0x3e, 0xe2, 0x8e, 0x03, 0x3e, 0xef, 0xe9, 0x80, 0xbe,
    0xd0, 0xd7, 0x46, 0x3d, 0x9d, 0x57, 0xbc, 0x3d, 0x42, 0x20, 0x5c, 0x3e,
    0x8e, 0xd0, 0x76, 0x3e, 0x96, 0x96, 0xac, 0xbe, 0x49, 0x2e, 0xf9, 0x3d,
    0x2d, 0xa3, 0x29, 0x3c, 0x9d, 0x2b, 0xcf, 0xbd, 0x98, 0x69, 0x42, 0xbb,
    0xc1, 0xc6, 0xc2, 0xbe, 0xf3, 0xb0, 0x4c, 0xbe, 0x93, 0xae, 0x93, 0x3c,
    0xa3, 0x61, 0x95, 0xbd, 0x1b, 0xb5, 0x2f, 0x3e, 0x17, 0x62, 0x10, 0xbd,
    0xd5, 0x8f, 0x49, 0x3d, 0x32, 0xe3, 0x46, 0x3e, 0x05, 0xbb, 0xb2, 0xbd,
    0xf6, 0xb8, 0xa7, 0xbd, 0x9e, 0x6d, 0xfc, 0xbd, 0xf8, 0x22, 0x20, 0x3e,
    0x2d, 0x5c, 0x3c, 0x3e, 0xdf, 0xda, 0x09, 0x3d, 0x38, 0x2c, 0x89, 0x3e,
    0x10, 0xc0, 0x97, 0x3e, 0x97, 0x77, 0xf5, 0x3c, 0x47, 0x93, 0x24, 0x3e,
    0x91, 0xdf, 0x61, 0x3e, 0xcd, 0x3d, 0x25, 0xbd, 0xcd, 0xd1, 0x07, 0xbe,
    0x10, 0xb0, 0x54, 0x3e, 0x66, 0x48, 0xfb, 0x3c, 0x6e, 0xa9, 0x79, 0xbe,
    0xe0, 0xc5, 0x0e, 0xbe, 0x73, 0xe9, 0x12, 0xbb, 0xc5, 0x41, 0xbd, 0xbd,
    0xd0, 0x2e, 0xd4, 0xbe, 0x41, 0xc0, 0xb4, 0x3e, 0x7e, 0xa9, 0x17, 0x3c,
    0x28, 0x6e, 0x44, 0xbd, 0x34, 0xe4, 0x17, 0xbe, 0xa3, 0xf6, 0x17, 0xbd,
    0xef, 0x3e, 0x8b, 0xbd, 0x9e, 0x64, 0x92, 0x3d, 0x82, 0xdd, 0x18, 0xbe,
    0x07, 0x49, 0xfa, 0x3c, 0x24, 0x06, 0x30, 0xbe, 0xbe, 0x17, 0xe6, 0x3d,
    0x2d, 0xe2, 0x03, 0xbe, 0xbe, 0xcf, 0x12, 0x3e, 0xc4, 0xd0, 0x05, 0xbf,
    0x32, 0x61, 0x1a, 0xbc, 0x73, 0x79, 0x52, 0xbc, 0x5c, 0xa7, 0xd9, 0xbe,
    0x5c, 0x35, 0xbb, 0x3d, 0x4a, 0x0b, 0xa6, 0xbe, 0x89, 0x1c, 0x13, 0xbf,
    0x7b, 0x8a, 0x88, 0x3e, 0xdd, 0x94, 0x8c, 0x3d, 0x15, 0x93, 0x59, 0xbb,
    0xcc, 0xb1, 0xdd, 0x3d, 0xb9, 0xe9, 0xca, 0x3d, 0x29, 0x9a, 0xda, 0xbd,
    0xd7, 0xa4, 0xf9, 0xbd, 0x41, 0x90, 0xfa, 0x3b, 0xc7, 0x1d, 0x6e, 0xbd,
    0xf2, 0x24, 0xa2, 0x3e, 0x06, 0xab, 0x22, 0xbe, 0x20, 0xf3, 0xc0, 0x3e,
    0x31, 0x67, 0x23, 0xbe, 0xe0, 0xc9, 0x85, 0x3e, 0x78, 0x7a, 0x5a, 0x3e,
    0x02, 0x72, 0xd7, 0xbd, 0xef, 0x3a, 0x80, 0xbe, 0xb5, 0xd3, 0x76, 0xbe,
    0x5f, 0x05, 0x22, 0xbe, 0xad, 0x68, 0x59, 0xbe, 0xdd, 0x53, 0xa4, 0x3d,
    0x1f, 0x0a, 0x4c, 0x3d, 0xf4, 0xc3, 0xed, 0xbd, 0x15, 0x13, 0x93, 0x3d,
    0x6a, 0x3b, 0x25, 0xbf, 0xde, 0x1a, 0x30, 0x3e, 0xb8, 0xc6, 0xef, 0xbd,
    0xdf, 0x4a, 0x84, 0x3e, 0x4e, 0x4c, 0x9b, 0xbe, 0x3a, 0x0d, 0xb2, 0x3d,
    0x01, 0x65, 0x6d, 0x3e, 0x01, 0xe1, 0x92, 0x3a, 0xbd, 0x56, 0xa9, 0xbd,
    0xdc, 0x63, 0xa8, 0xbd, 0x36, 0x6c, 0x0a, 0xbe, 0x7d, 0xe1, 0x03, 0xbf,
    0x48, 0x70, 0xa2, 0x3d, 0x47, 0xfd, 0x8f, 0x3d, 0x07, 0xb2, 0x05, 0xbe,
    0x05, 0xbb, 0x97, 0xbc, 0xcf, 0x56, 0x1f, 0x3e, 0xa3, 0xce, 0x4d, 0xbe,
    0x32, 0x72, 0x9b, 0xbe, 0x75, 0x58, 0x96, 0x3d, 0x6b, 0xdd, 0xb4, 0xbc,
    0x33, 0xd2, 0x8c, 0xbd, 0xd8, 0x8c, 0xde, 0xbd, 0x84, 0x26, 0x64, 0xbd,
    0xb2, 0x67, 0x3a, 0xbe, 0xf1, 0x47, 0x4b, 0xbd, 0xc7, 0x90, 0xe7, 0x3e,
    0xab, 0x22, 0xd0, 0xbd, 0x9b, 0x04, 0xde, 0xbe, 0x3f, 0x37, 0x30, 0x3e,
    0x9b, 0xd2, 0xa2, 0xbd, 0x23, 0x0b, 0xc9, 0x3a, 0x0c, 0x4b, 0x59, 0x3e,
    0x2b, 0x4c, 0xaa, 0xbd, 0x0f, 0xd1, 0xa5, 0xbd, 0x80, 0x7b, 0xaf, 0xbd,
    0x05, 0x3a, 0x6d, 0xbe, 0x91, 0x50, 0xcb, 0x3c, 0x06, 0x31, 0x75, 0xbe,
    0xce, 0x18, 0xe3, 0x3d, 0xbd, 0x9a, 0xb7, 0x3e, 0x79, 0xf8, 0xba, 0xbd,
    0xfc, 0x37, 0xb5, 0x3e, 0x0c, 0x3c, 0xbd, 0x3d, 0x2d, 0xa5, 0x8b, 0xbe,
    0xc1, 0xb3, 0xe5, 0xbd, 0x2c, 0x9a, 0x2d, 0xbe, 0x98, 0xf6, 0x7c, 0xbe,
    0x31, 0xf3, 0x4e, 0x3e, 0x2d, 0xa0, 0x9f, 0xbd, 0xf6, 0xc8, 0x5a, 0x3c,
    0x34, 0x22, 0x04, 0x3e, 0xcc, 0x57, 0x4c, 0xbd, 0xf8, 0xa1, 0x72, 0x3e,
    0xdd, 0x51, 0x01, 0x3e, 0xf9, 0x23, 0xcc, 0xbd, 0x0f, 0x32, 0x46, 0x3d,
    0x80, 0xf8, 0xed, 0x3d, 0xbd, 0x84, 0x87, 0xbd, 0x70, 0xc5, 0x4a, 0xbe,
    0xf6, 0x5c, 0x1c, 0xbd, 0x2c, 0xb0, 0x2c, 0x3e, 0x39, 0x59, 0x0c, 0x3e,
    0x87, 0xb2, 0x21, 0xbe, 0x9f, 0x86, 0x27, 0xbd, 0xe3, 0x35, 0x48, 0x3e,
    0x33, 0xd5, 0x14, 0x3e, 0x98, 0x76, 0x66, 0x3e, 0xe7, 0x1a, 0x1a, 0xbb,
    0x56, 0x1d, 0x07, 0x3e, 0x46, 0xa5, 0x07, 0x3e, 0x2d, 0xab, 0x89, 0xbb,
    0x01, 0x9d, 0x84, 0xbe, 0x17, 0x31, 0x6b, 0x3e, 0x2e, 0x4a, 0x22, 0xbe,
    0x6b, 0x05, 0xa9, 0xbe, 0x9c, 0xf1, 0x7d, 0xbd, 0x8d, 0xdb, 0xb4, 0xbe,
    0xfd, 0x89, 0xdd, 0x3d, 0x0e, 0xe7, 0x8e, 0x3d, 0x85, 0x82, 0x6f, 0x3c,
    0xe0, 0x0b, 0x0e, 0x3d, 0x4b, 0xaf, 0x39, 0xbe, 0xb1, 0x5b, 0x93, 0x3e,
    0x2f, 0x71, 0x23, 0xbe, 0xaa, 0xd4, 0x91, 0xbe, 0x11, 0xeb, 0x6a, 0x3e,
    0xf6, 0x0a, 0x8f, 0x3d, 0x11, 0x55, 0xca, 0x3d, 0x92, 0xe2, 0x05, 0x3e,
    0x38, 0xf2, 0x02, 0x3e, 0x56, 0xd7, 0xe4, 0xbc, 0xf5, 0xab, 0x4f, 0xbe,
    0x70, 0x32, 0xed, 0xbe, 0x0c, 0x1b, 0x20, 0xbf, 0x0a, 0x54, 0x4f, 0xbe,
    0x63, 0x15, 0x1a, 0x3d, 0x8a, 0x32, 0x7b, 0x3c, 0x7e, 0x3d, 0x93, 0x3e,
    0x46, 0x18, 0xa0, 0xbe, 0xcb, 0x3f, 0x8f, 0x3c, 0x59, 0xd0, 0x86, 0x3e,
    0x86, 0x88, 0xf4, 0x3c, 0x68, 0xa2, 0x2b, 0xbe, 0x8c, 0x97, 0x75, 0x3e,
    0xa3, 0x00, 0x80, 0xbe, 0xa3, 0x72, 0x0c, 0xbf, 0x5f, 0x06, 0x64, 0x3c,
    0x28, 0xe0, 0x88, 0xbe, 0xea, 0x5c, 0x06, 0x3e, 0xba, 0xd4, 0x21, 0x3d,
    0x2a, 0x7f, 0x41, 0x3d, 0x20, 0x5c, 0xbe, 0xbe, 0x1e, 0x8e, 0xc0, 0xbd,
    0x15, 0x2f, 0xda, 0xbe, 0xb5, 0xa0, 0x43, 0xbe, 0x2a, 0xf1, 0xad, 0x3b,
    0x56, 0xff, 0xe8, 0xbd, 0xcc, 0x3d, 0x06, 0x3e, 0x11, 0xf5, 0x61, 0xbc,
    0x66, 0x54, 0x25, 0xbe, 0x63, 0x03, 0xef, 0xbd, 0x28, 0xf0, 0xa1, 0x3e,
    0xf8, 0xe3, 0x19, 0x3e, 0xf0, 0xe8, 0x22, 0xbe, 0xf3, 0x22, 0xc5, 0xbe,
    0x53, 0xc3, 0x16, 0x3e, 0x1a, 0x7b, 0x80, 0x3e, 0x5e, 0xf8, 0x64, 0xbe,
    0xda, 0x05, 0x14, 0xbe, 0xbe, 0xc6, 0x60, 0x3e, 0x34, 0x82, 0x9b, 0xbe,
    0x35, 0x58, 0xf6, 0x3d, 0x80, 0xde, 0xa5, 0x3d, 0x8f, 0x1b, 0x17, 0xbe,
    0x1c, 0x79, 0x2e, 0x3e, 0x1f, 0x1a, 0xb1, 0x3e, 0xab, 0x64, 0x3d, 0x3e,
    0x05, 0x36, 0x82, 0xbe, 0x54, 0x78, 0xa0, 0xbd, 0xc8, 0x3d, 0x04, 0x3e,
    0xd5, 0x8b, 0xc8, 0xbe, 0x07, 0x7d, 0x72, 0xbe, 0x23, 0x1e, 0x84, 0x3d,
    0x7f, 0x9d, 0x79, 0xbe, 0x68, 0x19, 0x05, 0xbe, 0xe9, 0xb7, 0xbc, 0xbd,
    0xae, 0x5d, 0x84, 0xbe, 0x1a, 0xf1, 0x25, 0x3d, 0x69, 0x42, 0xd3, 0xbd,
    0xea, 0xe6, 0xf3, 0xbd, 0x50, 0x6f, 0x86, 0xbe, 0xf6, 0xe2, 0x55, 0x3e,
    0x34, 0xc8, 0xc6, 0x3c, 0x86, 0xe5, 0xb5, 0xbc, 0x7d, 0xe5, 0x81, 0x3d,
    0x83, 0x98, 0x83, 0x3e, 0x60, 0x0a, 0x94, 0x3e, 0x60, 0x4f, 0xbb, 0xbd,
    0x9c, 0x18, 0xe0, 0xbd, 0x64, 0xec, 0x1f, 0x3e, 0x5e, 0xf7, 0x37, 0x3e,
    0xfc, 0x97, 0x13, 0xbe, 0x91, 0xe4, 0xf4, 0xbd, 0x15, 0xb3, 0x98, 0x3e,
    0x06, 0x3a, 0xbd, 0xbe, 0xd0, 0x53, 0x42, 0x3e, 0xa1, 0x65, 0x22, 0xbe,
    0xc0, 0xef, 0x7e, 0xbe, 0x70, 0x23, 0x5c, 0x3e, 0xfd, 0x27, 0xac, 0x3e,
    0xe4, 0xca, 0xe5, 0xbc, 0x47, 0x74, 0x67, 0x3d, 0x42, 0xbc, 0xc9, 0xbc,
    0x57, 0x2a, 0x5a, 0xbe, 0x12, 0x39, 0x22, 0x3c, 0xef, 0x83, 0x92, 0xbe,
    0xba, 0xb7, 0x74, 0x3c, 0x98, 0x80, 0xb0, 0x3e, 0x23, 0x80, 0xf9, 0xbc,
    0xd5, 0xc3, 0xf4, 0x3c, 0xdb, 0xa9, 0x7d, 0x3d, 0x81, 0x08, 0xa5, 0xbc,
    0xb3, 0x68, 0x72, 0xbd, 0x94, 0xa6, 0x6e, 0x3d, 0x52, 0x2d, 0xa0, 0xbe,
    0x5f, 0x6f, 0xf0, 0x3c, 0x88, 0xac, 0xa9, 0x3d, 0x96, 0xf1, 0xe0, 0xbd,
    0x1a, 0x31, 0xf6, 0x3d, 0xcb, 0xe9, 0x15, 0xbe, 0x97, 0x26, 0x66, 0x3e,
    0xe9, 0x65, 0x4e, 0xbd, 0x73, 0xf8, 0xb6, 0xbd, 0xe7, 0x49, 0x1d, 0xbb,
    0x72, 0xf7, 0x64, 0x3e, 0x91, 0x8d, 0x88, 0x3d, 0x0d, 0xb7, 0x5e, 0x3e,
    0x18, 0xd2, 0x4d, 0xbe, 0x70, 0x45, 0x85, 0xbe, 0x61, 0x91, 0x30, 0x3e,
    0x22, 0x8f, 0x78, 0xbe, 0xc4, 0xd2, 0xa9, 0xbc, 0x24, 0xf9, 0x5a, 0x3e,
    0x54, 0xa0, 0x9a, 0xbd, 0x1f, 0x71, 0x0f, 0xbe, 0xa2, 0x39, 0x54, 0x3d,
    0x16, 0x45, 0x82, 0xbc, 0x95, 0xee, 0x4a, 0xbe, 0x78, 0x13, 0x3c, 0x3e,
    0x6a, 0x65, 0x63, 0xbe, 0x9e, 0xfd, 0x99, 0xbe, 0x09, 0x7a, 0x7b, 0x3e,
    0xff, 0x08, 0x29, 0x3d, 0x64, 0x84, 0x2b, 0x3e, 0xa0, 0x5c, 0x78, 0xbe,
    0x2b, 0x80, 0x4c, 0xbe, 0xce, 0x56, 0x79, 0x3c, 0x14, 0x17, 0xc5, 0x3d,
    0xc0, 0xaa, 0xd0, 0xbd, 0x5f, 0x69, 0x32, 0xbd, 0xd8, 0x30, 0x8e, 0x3c,
    0xbb, 0x33, 0x68, 0x3d, 0xbf, 0x46, 0x2d, 0xbe, 0xe5, 0xfe, 0x3e, 0xbd,
    0x3d, 0x8f, 0x9a, 0xbc, 0xf9, 0x5f, 0xc2, 0xbd, 0xbb, 0x5c, 0xcf, 0xbe,
    0x3a, 0xc7, 0xeb, 0x3c, 0xb3, 0xa7, 0x0e, 0xbd, 0x1e, 0x68, 0xb4, 0x3e,
    0xd2, 0x3a, 0x09, 0x3d, 0x1a, 0x90, 0xea, 0x3d, 0x54, 0x9c, 0x9b, 0x3e,
    0xef, 0x51, 0x94, 0x3d, 0x81, 0x15, 0xec, 0x3b, 0x42, 0xb8, 0x75, 0x3e,
    0x61, 0x09, 0xee, 0x3c, 0x03, 0xfa, 0x87, 0xbc, 0x1b, 0xd3, 0xb0, 0xbd,
    0x91, 0xf7, 0xab, 0x3e, 0x06, 0xb1, 0x26, 0x3e, 0x4f, 0x4e, 0xc6, 0xbb,
    0xdc, 0x75, 0xe3, 0xbe, 0x81, 0xc2, 0xe2, 0xbe, 0xb4, 0xd7, 0x61, 0xbd,
    0xd8, 0xff, 0xf1, 0x3c, 0x9a, 0x7c, 0xea, 0x3c, 0xf2, 0x21, 0xda, 0x3d,
    0x2c, 0x2b, 0x25, 0xbe, 0x64, 0x8b, 0x00, 0xbe, 0x62, 0x5e, 0xd9, 0xbc,
    0x40, 0xc1, 0x99, 0x3e, 0x2f, 0x56, 0xa4, 0x3d, 0x80, 0xb7, 0x87, 0xbe,
    0x6d, 0x7b, 0x8a, 0xbe, 0x05, 0x21, 0xd8, 0xbc, 0xd7, 0x3b, 0x81, 0xbd,
    0xa2, 0x8d, 0x29, 0x3e, 0x8e, 0x84, 0xec, 0xbe, 0xfd, 0xf8, 0xb4, 0x3b,
    0x9f, 0xcb, 0x71, 0x3e, 0xfa, 0xee, 0x14, 0xbd, 0x4f, 0xfe, 0x51, 0xbe,
    0x14, 0x52, 0xb0, 0x3e, 0xe4, 0x7b, 0xe0, 0xbe, 0x1e, 0x9f, 0xeb, 0xbc,
    0xec, 0x0c, 0x95, 0xbe, 0x5d, 0xbb, 0x5a, 0xbd, 0xc7, 0x9e, 0x4f, 0x3e,
    0x84, 0x2c, 0x2a, 0x3e, 0x94, 0x52, 0xb4, 0x3e, 0xd6, 0x45, 0xc2, 0xbe,
    0x87, 0xa1, 0x69, 0xbd, 0x27, 0x04, 0x8a, 0x3e, 0x34, 0xef, 0xac, 0xbd,
    0x30, 0x79, 0xc7, 0x3d, 0x9b, 0xdf, 0x39, 0xbe, 0xec, 0xdd, 0x90, 0xbe,
    0x36, 0x33, 0x5f, 0xbe, 0x54, 0x9b, 0x9a, 0xbe, 0x99, 0x13, 0x60, 0x3e,
    0x1d, 0x92, 0x57, 0x3e, 0xca, 0x23, 0x6f, 0x3d, 0xa3, 0xe2, 0x15, 0xbd,
    0x49, 0x83, 0x04, 0x3c, 0x1e, 0x88, 0x22, 0xbd, 0x94, 0x9d, 0x81, 0x3c,
    0xa6, 0x0a, 0x3f, 0xbe, 0x06, 0x2a, 0x9c, 0x3d, 0xd1, 0x1d, 0xec, 0xbe,
    0x88, 0x31, 0x88, 0x3d, 0xa1, 0xfb, 0x8f, 0x3e, 0x02, 0x58, 0x76, 0xbc,
    0xdd, 0x11, 0x0d, 0xbd, 0x5a, 0x7c, 0xe9, 0x3d, 0x84, 0x13, 0x34, 0xbe,
    0xf4, 0xb3, 0x9e, 0x3d, 0x20, 0x9d, 0x78, 0xbe, 0x5e, 0x83, 0xf3, 0x3d,
    0x4e, 0x91, 0x08, 0x3e, 0x3c, 0x62, 0x3d, 0xbd, 0x9e, 0x2b, 0x10, 0xbe,
    0xa2, 0x5a, 0xb2, 0x3e, 0x5c, 0x1c, 0xa6, 0x3e, 0xa1, 0x22, 0x0b, 0x3e,
    0xa5, 0x82, 0xbd, 0xbc, 0x15, 0xd0, 0xe0, 0xbe, 0x74, 0x1c, 0x32, 0xbe,
    0xe1, 0x20, 0x96, 0x3e, 0x54, 0x90, 0x50, 0xbe, 0xe3, 0xa7, 0x3b, 0x3d,
    0xe0, 0x03, 0x4a, 0xbe, 0xa2, 0x04, 0xad, 0xbe, 0xd4, 0x70, 0xc2, 0xbd,
    0xd3, 0xbe, 0x26, 0xbe, 0xcb, 0xc8, 0x41, 0xbe, 0xa3, 0x2a, 0xe1, 0xbd,
    0x9d, 0xa6, 0xe5, 0x3c, 0x32, 0x88, 0xbd, 0x3d, 0x9d, 0x6b, 0xd0, 0x3c,
    0x92, 0x64, 0xe7, 0xbd, 0x66, 0xf2, 0xd9, 0x3c, 0x98, 0xcc, 0x96, 0x3d,
    0xfe, 0xa8, 0x7d, 0x3e, 0x71, 0x4b, 0xb5, 0xbe, 0x3c, 0x8a, 0x1d, 0x3e,
    0xcb, 0xbb, 0xe8, 0xbe, 0x76, 0xe3, 0xfa, 0x3d, 0x3e, 0xac, 0x9a, 0xbe,
    0x34, 0xf6, 0xbd, 0x3d, 0xbc, 0xd9, 0x0e, 0xbe, 0x55, 0x11, 0x3f, 0x3d,
    0x23, 0x2d, 0xcc, 0xbd, 0xc7, 0xee, 0x9b, 0x3e, 0xff, 0x87, 0x69, 0xbb,
    0x2e, 0x41, 0x6d, 0x3e, 0x27, 0xa8, 0x79, 0x3d, 0x2b, 0x65, 0x84, 0xbd,
    0xb6, 0x59, 0xac, 0xbe, 0xff, 0xf7, 0xb4, 0xbd, 0xac, 0x9b, 0x9f, 0x3c,
    0x7b, 0x67, 0x22, 0xbe, 0x13, 0x01, 0x04, 0xbe, 0x0b, 0x99, 0x19, 0xbf,
    0x97, 0x3b, 0x2a, 0xbe, 0x82, 0x92, 0xcd, 0xbd, 0x7d, 0x76, 0x34, 0x3e,
    0x00, 0x94, 0x40, 0xbd, 0x28, 0x79, 0xc8, 0xbe, 0x53, 0x1f, 0x1b, 0xbe,
    0xa2, 0x3a, 0xfa, 0xbd, 0x9f, 0x3f, 0x17, 0xbd, 0xb9, 0x33, 0xf0, 0x3c,
    0x58, 0x50, 0xe7, 0x3d, 0xd7, 0x4f, 0x90, 0x3d, 0x29, 0x2c, 0x65, 0x3d,
    0x09, 0xca, 0xb1, 0x3d, 0x4e, 0x3a, 0xd7, 0xbe, 0x50, 0xc1, 0x37, 0xbe,
    0xd8, 0xf6, 0x0f, 0x3e, 0x8a, 0x34, 0x85, 0xbc, 0x0a, 0x8c, 0xec, 0xbd,
    0x63, 0xb5, 0x2d, 0xbe, 0x58, 0xeb, 0x2d, 0xbe, 0x07, 0x57, 0x94, 0xbd,
    0x34, 0xba, 0x08, 0xbe, 0x82, 0xaa, 0x54, 0x3e, 0x96, 0x60, 0xab, 0xbe,
    0x33, 0xb8, 0x56, 0xbe, 0x8f, 0x56, 0x7b, 0xbd, 0x75, 0xe2, 0xd1, 0x3e,
    0x75, 0xcb, 0x7b, 0x3e, 0x56, 0xfa, 0x2a, 0x3e, 0x25, 0xe5, 0x01, 0x3f,
    0x48, 0xbd, 0x29, 0x3e, 0x0c, 0x97, 0xc9, 0x3d, 0x97, 0x13, 0x94, 0x3e,
    0x81, 0xb7, 0xdf, 0xbe, 0xfe, 0xed, 0x8e, 0x3e, 0xf2, 0x40, 0x86, 0xbd,
    0x5d, 0x19, 0x96, 0xbd, 0xb6, 0xb9, 0x23, 0xbc, 0xba, 0xfe, 0x01, 0x3e,
    0x05, 0xcf, 0x66, 0xbe, 0x82, 0xbc, 0x11, 0xbe, 0x11, 0x0f, 0x82, 0x3c,
    0x7b, 0xbc, 0x76, 0xbe, 0x11, 0x82, 0xab, 0xbe, 0xfd, 0xaa, 0x1c, 0x3e,
    0x9d, 0x12, 0xb5, 0x3d, 0x5c, 0x06, 0xfa, 0xbd, 0xbc, 0xec, 0x4f, 0x3e,
    0xce, 0xa9, 0x7f, 0x3e, 0x86, 0x35, 0xc3, 0xbb, 0xf3, 0xe6, 0xd5, 0xbd,
    0x5a, 0xc6, 0xcd, 0x3d, 0x29, 0x1c, 0xa4, 0xbe, 0xd2, 0x8b, 0x99, 0x3e,
    0xb6, 0x6e, 0x8b, 0xbe, 0x47, 0xc4, 0xf0, 0xbd, 0xbc, 0x97, 0x6b, 0xbc,
    0xfc, 0xce, 0x7a, 0x3e, 0x60, 0xdc, 0x2a, 0x3e, 0xb8, 0xe4, 0xf0, 0x3d,
    0x44, 0x86, 0xbb, 0xbe, 0x1e, 0x01, 0xe7, 0x3d, 0x83, 0x3c, 0x50, 0xbd,
    0x70, 0xdb, 0x9d, 0x3e, 0xfd, 0x1e, 0x0f, 0xbe, 0x8e, 0xc0, 0x70, 0x3d,
    0x45, 0xa9, 0x9a, 0xbe, 0x0e, 0xc7, 0x85, 0xbe, 0x2e, 0x24, 0x09, 0xbe,
    0x31, 0x28, 0x70, 0x3d, 0x76, 0x5d, 0x51, 0x3d, 0xe7, 0x26, 0xa7, 0x3d,
    0xb7, 0xee, 0xe9, 0xbc, 0x02, 0x44, 0x95, 0xbd, 0x1f, 0x24, 0x27, 0x3e,
    0x2d, 0x31, 0x5f, 0xbe, 0x70, 0x90, 0x99, 0xbe, 0x4c, 0x69, 0x9b, 0x3e,
    0x53, 0x6a, 0x1b, 0x3d, 0x3e, 0x25, 0x91, 0x3e, 0x3d, 0xec, 0xa1, 0x3e,
    0x53, 0x18, 0xfb, 0xbd, 0xfa, 0x3c, 0x92, 0xbe, 0xd1, 0x92, 0xd8, 0xbc,
    0x35, 0x34, 0x71, 0xbe, 0xf9, 0x46, 0x48, 0xbe, 0x25, 0xe6, 0xa3, 0x3e,
    0x0f, 0xaa, 0xb1, 0xbc, 0x53, 0x69, 0x1f, 0xbe, 0x11, 0x43, 0xa5, 0x3e,
    0xb7, 0x1d, 0xa8, 0x3e, 0xe6, 0x45, 0x8f, 0xbe, 0x88, 0xe0, 0x8b, 0xbe,
    0xf4, 0xa4, 0x1c, 0xbe, 0x43, 0x44, 0xfc, 0xbe, 0xce, 0x43, 0x09, 0xbe,
    0x58, 0x68, 0x4a, 0xbe, 0xef, 0x47, 0x77, 0xbe, 0x4c, 0x3e, 0x35, 0xbd,
    0xd0, 0xcd, 0xfe, 0xbc, 0xe6, 0xd9, 0xff, 0x3d, 0x20, 0x64, 0xf5, 0xbe,
    0x3a, 0x33, 0xb5, 0x3d, 0x92, 0x36, 0xc1, 0xbc, 0x75, 0x3a, 0x10, 0xbf,
    0x8a, 0x08, 0xb1, 0x3e, 0x8b, 0x4d, 0x35, 0x3e, 0x1b, 0x13, 0x74, 0x3e,
    0x44, 0x1d, 0x2f, 0xbd, 0xe4, 0x73, 0x4f, 0xbd, 0x80, 0x84, 0x3b, 0x3e,
    0x4d, 0xe9, 0x99, 0xbd, 0x20, 0x12, 0xab, 0xbd, 0x51, 0x45, 0xc0, 0x3d,
    0x68, 0x25, 0x5e, 0x3a, 0xdf, 0x15, 0x9a, 0x3c, 0x0a, 0xbd, 0x7d, 0xbe,
    0x82, 0x77, 0x87, 0x3e, 0x00, 0x07, 0xb0, 0xbe, 0xde, 0xb4, 0x80, 0x3d,
    0x8b, 0x5a, 0xa0, 0x3d, 0x90, 0x70, 0x2d, 0x3d, 0x64, 0xce, 0x2a, 0x3d,
    0xdc, 0xc1, 0xb5, 0xba, 0xcc, 0x8c, 0x22, 0x3e, 0xfa, 0x2a, 0x31, 0x3e,
    0x04, 0x7e, 0xbe, 0x3d, 0x44, 0x61, 0x16, 0x3e, 0x6f, 0xd2, 0x0f, 0x3e,
    0x40, 0xd5, 0x81, 0xbe, 0x26, 0x17, 0x52, 0xbe, 0x8a, 0x66, 0xb7, 0xbd,
    0x27, 0x07, 0x20, 0xbd, 0xf5, 0xda, 0xf4, 0xbd, 0x86, 0xf5, 0x44, 0x3e,
    0x09, 0xc1, 0x60, 0xbe, 0x87, 0xe2, 0x4e, 0x3e, 0x17, 0x7b, 0x2c, 0xbe,
    0xc1, 0x1e, 0xf0, 0x3d, 0xa4, 0xe2, 0x85, 0xbe, 0x7b, 0x97, 0x8b, 0x3d,
    0x79, 0x37, 0x57, 0xbe, 0xe2, 0xeb, 0xb4, 0xbd, 0xb4, 0x26, 0xb7, 0x3d,
    0xc7, 0xbe, 0x4f, 0xbe, 0xf6, 0xd2, 0xc7, 0xbd, 0xd2, 0x50, 0x6f, 0x3e,
    0x31, 0x21, 0x6c, 0x3e, 0xb7, 0x72, 0x82, 0x3c, 0x18, 0x49, 0x0a, 0xbf,
    0x29, 0x22, 0x2b, 0xbc, 0x6c, 0x64, 0x5a, 0x3e, 0xee, 0xe7, 0x75, 0xbe,
    0x50, 0xac, 0x2d, 0x3e, 0xc3, 0x3e, 0x04, 0x3e, 0x57, 0x69, 0x3a, 0x3c,
    0xf8, 0xa0, 0xaf, 0xbd, 0x62, 0x47, 0xed, 0x3d, 0xb6, 0x04, 0x50, 0xbe,
    0xbb, 0x41, 0x89, 0x3d, 0xb2, 0xfa, 0xaf, 0xbd, 0x7a, 0xe2, 0x5c, 0x3e,
    0xe0, 0xee, 0xd4, 0xbe, 0x74, 0xa7, 0x2f, 0xbe, 0x6e, 0x52, 0x1c, 0xbe,
    0x85, 0x03, 0x8e, 0x3d, 0x20, 0x8a, 0xd9, 0x3e, 0x99, 0x53, 0xa3, 0xbe,
    0x1e, 0xd2, 0x15, 0xbe, 0xc2, 0x87, 0x76, 0x3e, 0xcb, 0x93, 0x4e, 0xbe,
    0x8f, 0xd1, 0x96, 0xbd, 0xf7, 0x99, 0xd8, 0xbd, 0xed, 0xf7, 0x81, 0x3d,
    0xf3, 0x1a, 0xe3, 0xbd, 0x27, 0xa7, 0x12, 0xbe, 0xb5, 0x99, 0xf4, 0xbd,
    0xba, 0x21, 0xb9, 0x3d, 0xee, 0xbd, 0x7e, 0xbe, 0x91, 0xe9, 0x57, 0x3d,
    0xc2, 0x5f, 0xe2, 0xbd, 0xdf, 0xb8, 0xac, 0xbc, 0x0c, 0xe6, 0xb8, 0x3d,
    0x2d, 0xe6, 0xc9, 0xbe, 0xc9, 0x64, 0xc6, 0xbc, 0x32, 0x25, 0x8d, 0x3e,
    0x75, 0x60, 0x04, 0x3e, 0x1f, 0xe3, 0x67, 0xbe, 0x2b, 0xfb, 0x9e, 0xbd,
    0xcb, 0x7f, 0x47, 0x3e, 0x2d, 0x94, 0x19, 0x3e, 0xc9, 0x70, 0x24, 0x3e,
    0x52, 0x77, 0x63, 0xbe, 0x63, 0x54, 0xa3, 0xbe, 0xe8, 0xba, 0x82, 0x3e,
    0xeb, 0x9d, 0x1c, 0x3e, 0xe0, 0x99, 0x12, 0x3e, 0x2d, 0x83, 0x82, 0x3e,
    0xb7, 0xe0, 0x80, 0xbe, 0x35, 0x7c, 0x97, 0xbe, 0xf5, 0xf6, 0x6b, 0xbe,
    0xf9, 0x27, 0x8c, 0x3e, 0xa0, 0x6e, 0x15, 0x3d, 0x57, 0xd6, 0x8b, 0x3e,
    0x7d, 0x06, 0xd1, 0x3c, 0x8d, 0xe8, 0x04, 0x3c, 0x75, 0x1f, 0x27, 0xbd,
    0xd8, 0x0c, 0x6e, 0x3e, 0xaf, 0x8b, 0xf4, 0xbd, 0x9d, 0xdb, 0x7c, 0xbe,
    0x1b, 0x44, 0x6a, 0x3e, 0x1f, 0xf3, 0xf3, 0x3d, 0x48, 0x4c, 0x88, 0xbe,
    0x69, 0x09, 0xba, 0xbe, 0xfa, 0x4b, 0xf5, 0xbe, 0x7d, 0x23, 0x0e, 0xbd,
    0xec, 0xef, 0x99, 0xbd, 0xab, 0xe4, 0x82, 0xbc, 0x9b, 0x8d, 0x99, 0xbd,
    0x81, 0x02, 0xd1, 0x3d, 0x4f, 0x77, 0xa8, 0x3c, 0xd7, 0x45, 0x80, 0xbe,
    0x7f, 0x90, 0x80, 0x3e, 0x00, 0x02, 0x8e, 0x3e, 0x31, 0x9b, 0x9c, 0x3d,
    0xbe, 0x73, 0x72, 0x3a, 0x01, 0x9e, 0x86, 0xbe, 0x94, 0x5d, 0x2e, 0x3e,
    0xa5, 0x7b, 0xf1, 0x3c, 0x13, 0x70, 0x79, 0xbe, 0x44, 0xd2, 0x75, 0xbe,
    0xff, 0x22, 0x65, 0xbe, 0xa0, 0xb6, 0x45, 0xbe, 0x9e, 0x60, 0x25, 0x3e,
    0x68, 0x2e, 0x00, 0xbf, 0x22, 0xce, 0x8c, 0xbe, 0x70, 0x5f, 0x6f, 0x3e,
    0x81, 0xd7, 0x4f, 0x3d, 0x63, 0x1e, 0x06, 0xbe, 0x6f, 0x77, 0x6c, 0xbe,
    0xc1, 0x3d, 0x7d, 0x3e, 0x21, 0xa4, 0x1a, 0xbe, 0x0d, 0x54, 0x8b, 0xbe,
    0x0a, 0x07, 0x8a, 0x3c, 0x05, 0x17, 0x74, 0xbb, 0x89, 0x09, 0xf0, 0x3d,
    0xd7, 0x98, 0x5c, 0xbe, 0x88, 0x01, 0x0b, 0xbe, 0xa3, 0xdc, 0x56, 0xba,
    0x89, 0x2b, 0x05, 0xbe, 0x24, 0x3a, 0xe4, 0xbe, 0x3d, 0x5e, 0x05, 0xbe,
    0x2b, 0x82, 0xac, 0x3c, 0x6d, 0x56, 0x19, 0x3e, 0xed, 0x36, 0x6b, 0x3d,
    0xe3, 0xb9, 0x85, 0xbe, 0x54, 0x0f, 0x55, 0x3e, 0x33, 0x01, 0xaf, 0x3e,
    0xf0, 0x36, 0x40, 0xbd, 0xce, 0x4a, 0x93, 0xbd, 0x25, 0x4e, 0x6c, 0x3d,
    0x9a, 0x5a, 0x08, 0xbd, 0x74, 0x7b, 0xdc, 0x3d, 0x67, 0xf0, 0x3e, 0xbe,
    0x5d, 0xa5, 0x06, 0x3c, 0xf6, 0xee, 0x28, 0x3e, 0xb6, 0xab, 0x0b, 0xbf,
    0x8b, 0x95, 0xa5, 0x3d, 0x06, 0x26, 0x66, 0x3e, 0xb4, 0x48, 0xc7, 0x3e,
    0xff, 0xcb, 0x2a, 0x3e, 0x81, 0xf4, 0x8d, 0x3b, 0xb4, 0x37, 0xdb, 0x3d,
    0xcd, 0x60, 0x27, 0x3e, 0x00, 0xb4, 0xb8, 0x3c, 0x54, 0x7c, 0x84, 0x3e,
    0x98, 0x47, 0xcb, 0xbe, 0x66, 0x52, 0xa9, 0x3c, 0xa8, 0x1e, 0x24, 0xbe,
    0xc9, 0x8b, 0x0a, 0x3d, 0x5f, 0x94, 0xa3, 0x3d, 0x5a, 0x62, 0x1c, 0xbe,
    0x5a, 0x76, 0xfa, 0x3c, 0xb8, 0x81, 0x47, 0x3e, 0x29, 0xc6, 0x73, 0x3e,
    0x92, 0x70, 0x75, 0x3e, 0xb5, 0x7d, 0x18, 0xbe, 0xb8, 0xc7, 0xab, 0xbd,
    0x8b, 0x72, 0xc3, 0xbe, 0xd5, 0xd4, 0xad, 0xbe, 0xd5, 0xd8, 0x2e, 0x3e,
    0x56, 0x10, 0x23, 0x3e, 0xed, 0x78, 0xcb, 0xbc, 0x8e, 0x71, 0xb6, 0xbe,
    0x84, 0x00, 0x16, 0xbe, 0xe1, 0x75, 0x10, 0x3e, 0x72, 0x15, 0x57, 0x3e,
    0x5d, 0xde, 0x63, 0x3e, 0xe7, 0x0d, 0x56, 0x3e, 0x62, 0x23, 0x0f, 0xbe,
    0xbe, 0x62, 0x90, 0xbe, 0x5e, 0xdf, 0x97, 0xbe, 0x82, 0x5d, 0x6d, 0xbd,
    0x26, 0x72, 0xee, 0x3d, 0x64, 0x6c, 0x38, 0x3e, 0xc3, 0xf9, 0xd1, 0xbc,
    0x44, 0xee, 0xcc, 0xbe, 0x7a, 0xf4, 0x86, 0xbe, 0x37, 0x52, 0x68, 0xbd,
    0xbb, 0x5f, 0xc6, 0x3c, 0x90, 0xb2, 0x7a, 0x3d, 0xa7, 0xb9, 0xf1, 0x3c,
    0x29, 0xbe, 0x82, 0x3e, 0x54, 0xaa, 0x74, 0xbe, 0x87, 0xaf, 0x41, 0xbe,
    0xc1, 0x84, 0xa2, 0x3d, 0x89, 0x58, 0x28, 0x3e, 0xba, 0x81, 0xac, 0x3d,
    0x12, 0x5a, 0x69, 0xbe, 0xcc, 0xdf, 0xfe, 0xbd, 0x84, 0x54, 0xc2, 0xbd,
    0xd8, 0xd5, 0x2c, 0x3e, 0x02, 0xd8, 0xa4, 0xbe, 0x4a, 0x30, 0x9c, 0xbd,
    0xa4, 0xfe, 0x62, 0xbe, 0x8c, 0x57, 0x19, 0xbd, 0x76, 0xfe, 0xcb, 0xbe,
    0xba, 0xcf, 0x7f, 0xbd, 0x97, 0xfa, 0xc0, 0x3d, 0xd2, 0xaa, 0x01, 0xbf,
    0xd3, 0x85, 0xbe, 0x3d, 0xba, 0x7e, 0xc1, 0xbc, 0x18, 0xfc, 0x8a, 0x3e,
    0xb2, 0xc4, 0xd8, 0xbe, 0xe4, 0x45, 0x95, 0x3d, 0xa7, 0xc2, 0x8d, 0xbd,
    0x72, 0xe1, 0x8e, 0x3e, 0xc9, 0x12, 0x8b, 0x3e, 0x2a, 0xc7, 0xe6, 0x3a,
    0x8d, 0x9a, 0x09, 0xbe, 0xa7, 0xed, 0xbb, 0x3e, 0x80, 0xfa, 0x78, 0x3e,
    0x74, 0x5e, 0x92, 0xbe, 0x24, 0xf1, 0x13, 0x3e, 0x65, 0x52, 0x0e, 0x3e,
    0x56, 0x49, 0x84, 0xbd, 0x16, 0x35, 0xda, 0xbe, 0x25, 0x83, 0x4e, 0x3d,
    0xf5, 0x01, 0x75, 0xbe, 0x0b, 0xeb, 0xe9, 0x3c, 0x99, 0x40, 0x39, 0xbe,
    0x65, 0xef, 0xd5, 0xbb, 0xd2, 0x14, 0x79, 0xbe, 0xa4, 0x18, 0x30, 0x3e,
    0x6f, 0x42, 0xf0, 0xbb, 0xc4, 0x9e, 0x20, 0xbe, 0x63, 0x90, 0x20, 0xbd,
    0x39, 0x9c, 0xc9, 0xbe, 0x24, 0x1e, 0x61, 0xbe, 0xba, 0xa6, 0x05, 0xbe,
    0x89, 0xfd, 0xeb, 0x3d, 0x3b, 0x6e, 0x7d, 0x3c, 0xf2, 0xa4, 0xa1, 0xbd,
    0xaa, 0xce, 0x34, 0xbe, 0x4e, 0x18, 0x57, 0x3e, 0xa4, 0x56, 0x83, 0xbc,
    0x34, 0x21, 0x55, 0x3e, 0x2c, 0x5e, 0x83, 0x3e, 0x3d, 0x3a, 0xc4, 0xbe,
    0x90, 0x64, 0x47, 0x3e, 0x4f, 0xa3, 0x24, 0x3e, 0xef, 0x5c, 0x8a, 0x3e,
    0xe5, 0xb2, 0xa1, 0xbd, 0x73, 0xa6, 0x55, 0xbe, 0x34, 0x59, 0xf7, 0xbd,
    0x9a, 0x87, 0x7c, 0x3e, 0xbf, 0x4c, 0xd3, 0xbd, 0x21, 0xd7, 0x6c, 0x3e,
    0xcd, 0xbe, 0x32, 0xbe, 0xbb, 0x72, 0xa9, 0x3d, 0xa1, 0xeb, 0x77, 0x3e,
    0x73, 0x57, 0x8b, 0x3e, 0x95, 0x24, 0x1d, 0xbd, 0x53, 0x1c, 0x37, 0x3d,
    0x34, 0x73, 0x7b, 0xbe, 0x0b, 0xa9, 0xec, 0xbd, 0x1b, 0xf4, 0x7c, 0xbe,
    0xf2, 0x13, 0x37, 0xbd, 0x9f, 0x3f, 0x8f, 0xbb, 0x01, 0xa4, 0x14, 0xbe,
    0xe3, 0x17, 0x14, 0xbe, 0xca, 0x5d, 0xae, 0xbd, 0xe0, 0xcb, 0x96, 0xbc,
    0xc8, 0xd8, 0xf5, 0xbd, 0xca, 0x43, 0x81, 0xbd, 0xe4, 0x26, 0xa8, 0xbd,
    0x06, 0x1c, 0x34, 0xbe, 0xc1, 0x69, 0x5c, 0xbe, 0xdd, 0x6a, 0x1c, 0x3e,
    0x37, 0x14, 0x88, 0x3e, 0x8c, 0xa8, 0x4e, 0xbe, 0x2f, 0x3c, 0x99, 0x3e,
    0xcd, 0x6c, 0xa2, 0x3d, 0xdc, 0x9c, 0xd6, 0x3c, 0x5d, 0xeb, 0xd4, 0x3d,
    0xdc, 0x76, 0x43, 0xbd, 0x1a, 0x5d, 0xe3, 0xbd, 0x47, 0xad, 0xa3, 0xbe,
    0x8a, 0xaa, 0x11, 0x3e, 0x32, 0x9d, 0x76, 0xbd, 0x5b, 0x52, 0xd0, 0x3d,
    0x55, 0x88, 0x4e, 0x3e, 0x12, 0x45, 0x52, 0xbe, 0xd0, 0xeb, 0xc9, 0xbd,
    0xb7, 0xe7, 0xb4, 0x3e, 0x7c, 0xe9, 0x06, 0xbe, 0x5b, 0x7e, 0x16, 0x3b,
    0x38, 0xad, 0x61, 0x3e, 0x14, 0x73, 0x02, 0xbd, 0xb1, 0x4f, 0x73, 0xbd,
    0xb1, 0xa4, 0xe7, 0x3d, 0x9a, 0x3d, 0x08, 0x3e, 0x7b, 0x2b, 0xa0, 0xbe,
    0x12, 0xe2, 0xc1, 0x3e, 0xb6, 0x9f, 0xcb, 0xbd, 0x28, 0x99, 0x4f, 0xbc,
    0xb2, 0xed, 0x5d, 0xbd, 0x27, 0xc8, 0x4a, 0xbd, 0x9b, 0xb3, 0x82, 0xbd,
    0x1c, 0x74, 0xc4, 0x3d, 0xcd, 0x99, 0x82, 0xbe, 0xa5, 0x6e, 0x5c, 0xbe,
    0x2f, 0x1b, 0x52, 0xbe, 0x78, 0xa7, 0x1f, 0xbc, 0xdc, 0x40, 0x8c, 0x3e,
    0x5a, 0x50, 0x13, 0x3e, 0x3c, 0x7d, 0x6b, 0xbc, 0x27, 0x1f, 0xa2, 0x3c,
    0x95, 0xa9, 0x90, 0x3d, 0x84, 0xca, 0x84, 0xbd, 0x4b, 0x83, 0x15, 0xbe,
    0xc2, 0x3f, 0xb7, 0x3e, 0x74, 0xda, 0x81, 0x3c, 0x06, 0x51, 0xae, 0xbe,
    0x63, 0x34, 0x09, 0x3e, 0x51, 0x81, 0x4d, 0x3e, 0xed, 0x48, 0xe6, 0xbd,
    0x66, 0x7e, 0x1c, 0xbe, 0xd0, 0xb7, 0x5d, 0xbb, 0xef, 0x61, 0xc2, 0x3d,
    0x14, 0x3b, 0x83, 0xbd, 0x57, 0x09, 0x8c, 0x3d, 0x24, 0x90, 0x71, 0xbd,
    0x66, 0x0d, 0xbc, 0x3d, 0xbc, 0xf4, 0x01, 0xbe, 0x9d, 0x05, 0xb5, 0x3d,
    0x6f, 0x6f, 0xa0, 0x3d, 0x69, 0xb8, 0x13, 0xbf, 0xe3, 0x7e, 0x48, 0xbe,
    0x15, 0x1f, 0x98, 0x3d, 0x40, 0x96, 0x03, 0x3e, 0xea, 0x57, 0xa1, 0xbe,
    0x44, 0x24, 0x16, 0x3e, 0x82, 0x73, 0x9e, 0xbd, 0x73, 0xcc, 0x4a, 0xbe,
    0x81, 0x77, 0xf4, 0x3d, 0x77, 0xe5, 0x85, 0x3d, 0x62, 0x94, 0x65, 0x3e,
    0xf3, 0x2d, 0x3f, 0xbd, 0x68, 0x2c, 0xd7, 0x3e, 0x75, 0x4f, 0x80, 0xbe,
    0xbb, 0xd4, 0xf0, 0xbe, 0xd6, 0xfb, 0xad, 0xbd, 0x7d, 0x08, 0x2e, 0xbe,
    0x1e, 0x0a, 0xfb, 0xbc, 0x47, 0x60, 0xd3, 0xbe, 0xf6, 0x45, 0x99, 0xbe,
    0xf2, 0xcd, 0xb7, 0xbd, 0x89, 0xb3, 0xb6, 0xbd, 0x1f, 0xe9, 0x56, 0x3e,
    0x38, 0xea, 0x43, 0xbe, 0x13, 0x4c, 0x80, 0x3e, 0x5b, 0x4d, 0xfe, 0xbc,
    0x31, 0x13, 0x8e, 0x3d, 0xfb, 0x11, 0x7f, 0x3a, 0x02, 0xdb, 0xb3, 0x3b,
    0x5b, 0x30, 0xec, 0xbd, 0x65, 0x29, 0x3f, 0x3c, 0x32, 0x37, 0x5f, 0x3e,
    0xff, 0xb2, 0xa0, 0xbe, 0x9e, 0x82, 0xd0, 0xbe, 0x1f, 0x88, 0x8c, 0x3e,
    0xda, 0xfd, 0x04, 0xbd, 0x24, 0xd8, 0x8c, 0xbe, 0xa6, 0x9b, 0x2b, 0x3e,
    0xe6, 0xbc, 0xa4, 0x3d, 0x42, 0x25, 0x78, 0x3e, 0x9e, 0x1a, 0x44, 0xbe,
    0x1b, 0x51, 0xb8, 0x3e, 0x2c, 0xe1, 0x01, 0xbe, 0x41, 0x78, 0x8a, 0x3c,
    0xa3, 0x56, 0x52, 0x3e, 0x72, 0x80, 0xf4, 0xbe, 0xb1, 0x9d, 0xf5, 0x3d,
    0x12, 0x49, 0xbb, 0xbe, 0x51, 0xfa, 0x53, 0xba, 0x5b, 0x32, 0x85, 0xbe,
    0xb1, 0x85, 0x4c, 0x3d, 0x44, 0x25, 0xc3, 0x3d, 0xcb, 0x35, 0x12, 0xbd,
    0xa6, 0x31, 0x21, 0xbd, 0xbd, 0x0d, 0x1b, 0xbd, 0xa5, 0xe4, 0xda, 0x3d,
    0x24, 0x5a, 0xa7, 0xbe, 0x48, 0x75, 0xec, 0x3e, 0xd1, 0x92, 0xb4, 0xbe,
    0xa0, 0xe7, 0x32, 0xbe, 0xd1, 0x9b, 0xc2, 0xbe, 0x71, 0x51, 0xa1, 0x3d,
    0xff, 0x1f, 0x0f, 0xbd, 0x42, 0x41, 0x57, 0xbd, 0x3a, 0x65, 0x06, 0xbe,
    0x92, 0x52, 0x95, 0xbe, 0xbb, 0x6a, 0x49, 0x3e, 0x27, 0xe7, 0x00, 0xbe,
    0x4d, 0x52, 0x3a, 0x3d, 0x14, 0xfd, 0xc0, 0x3d, 0xb4, 0x1f, 0x85, 0x3e,
    0x80, 0x3d, 0x2c, 0x3e, 0x8a, 0x73, 0xcc, 0xbd, 0xd9, 0x57, 0x30, 0x3d,
    0xe6, 0x66, 0x5b, 0xbe, 0xc0, 0x8c, 0x85, 0xbe, 0x43, 0x6c, 0xb6, 0x3c,
    0x13, 0x7d, 0x54, 0xbd, 0x74, 0xb8, 0xc2, 0x3d, 0x7b, 0x37, 0x8b, 0xbe,
    0x71, 0xc9, 0x7c, 0xbb, 0xb9, 0xad, 0x40, 0x3e, 0xe7, 0x61, 0x31, 0x3e,
    0x6c, 0x7d, 0x4f, 0x3d, 0x55, 0x09, 0xd5, 0xbd, 0x53, 0x02, 0x81, 0xbe,
    0x9c, 0x82, 0xa6, 0x3d, 0xdb, 0xa6, 0x2f, 0x3e, 0x8d, 0xb5, 0x33, 0xbe,
    0x39, 0xef, 0x2b, 0xbd, 0x38, 0x4c, 0x8e, 0x3c, 0x90, 0xdc, 0x57, 0x3e,
    0xd6, 0x48, 0x67, 0x3e, 0xa7, 0x4e, 0x29, 0xbd, 0xfd, 0xde, 0x92, 0xbd,
    0x99, 0xac, 0x9f, 0xbd, 0x6f, 0x81, 0x43, 0x3e, 0x7b, 0x5e, 0xb0, 0xbd,
    0x6d, 0xbb, 0xae, 0xbc, 0x33, 0x57, 0x33, 0x3e, 0x70, 0x08, 0x83, 0xbc,
    0x77, 0x22, 0x8c, 0x3e, 0x09, 0xe3, 0x85, 0xbd, 0x18, 0x6b, 0x5c, 0x3d,
    0x6e, 0x20, 0x41, 0xbe, 0x4b, 0x46, 0x6e, 0x3d, 0x10, 0xdf, 0x51, 0x3c,
    0x8c, 0xd6, 0xe5, 0xbe, 0x70, 0x04, 0x77, 0x3b, 0x69, 0x5b, 0x37, 0x3e,
    0x14, 0xde, 0x22, 0x3e, 0x65, 0xa0, 0x24, 0xbd, 0x76, 0xa3, 0x7f, 0xbe,
    0xb5, 0x41, 0xf7, 0x3d, 0x5b, 0xcb, 0xe0, 0xbd, 0x61, 0x39, 0xa6, 0xbe,
    0x6f, 0x0b, 0x56, 0x3e, 0x9e, 0x2e, 0x6f, 0xbd, 0x6b, 0x9c, 0xe1, 0x3d,
    0x05, 0xfd, 0x0f, 0xbe, 0x98, 0x9e, 0x00, 0x3e, 0xcb, 0xbc, 0x98, 0x3d,
    0xb0, 0x99, 0x95, 0x3d, 0x12, 0x0d, 0x35, 0x3e, 0x94, 0x3b, 0x0f, 0xbe,
    0xd2, 0xdd, 0x08, 0xbd, 0x9e, 0x97, 0xcb, 0xbe, 0x33, 0x3a, 0xcc, 0xbd,
    0x02, 0x51, 0x9c, 0xbd, 0x8d, 0x9b, 0x8e, 0xbc, 0x8e, 0xbc, 0xa1, 0x3d,
    0x5c, 0x3b, 0xbf, 0xbd, 0x20, 0xf6, 0x71, 0x3e, 0xd7, 0xa4, 0xbc, 0xbe,
    0xf2, 0x97, 0x64, 0xbd, 0xfe, 0x8c, 0x5e, 0x3d, 0x92, 0x18, 0x31, 0x3b,
    0x55, 0xcb, 0x8f, 0xbd, 0x85, 0xee, 0x82, 0xbd, 0x02, 0xb5, 0x50, 0x3d,
    0x96, 0x1c, 0x3d, 0xbe, 0x31, 0x6e, 0x93, 0x3e, 0x05, 0x17, 0x7b, 0xbe,
    0x84, 0x21, 0x24, 0xbe, 0x5a, 0x9c, 0xf2, 0x3d, 0x35, 0x62, 0x25, 0x3d,
    0xca, 0xe0, 0xe1, 0x3d, 0x47, 0x12, 0x33, 0xbc, 0xda, 0x5f, 0xe6, 0xbd,
    0x5f, 0x7d, 0x44, 0xbe, 0x9c, 0xea, 0xe3, 0x3d, 0x5f, 0xdd, 0x31, 0xbe,
    0xc6, 0x2c, 0x86, 0x3e, 0xd2, 0xaf, 0x46, 0x3e, 0x8e, 0x43, 0x09, 0xbe,
    0xfa, 0xf3, 0x6b, 0xbe, 0xec, 0x3f, 0x60, 0xbe, 0xb1, 0xb0, 0x08, 0x3e,
    0xa4, 0x77, 0xba, 0xbe, 0xef, 0x74, 0xd4, 0x3e, 0x61, 0xb6, 0x1e, 0x3d,
    0x87, 0x52, 0xc4, 0xbd, 0x39, 0xdb, 0x97, 0x3e, 0x4d, 0x7b, 0x41, 0xbc,
    0x8f, 0x3e, 0x76, 0xbe, 0x47, 0x95, 0xcd, 0x3d, 0x17, 0x56, 0x0d, 0x3d,
    0x09, 0x88, 0x56, 0xbe, 0x02, 0x5a, 0x79, 0xbe, 0x0c, 0x9b, 0xc6, 0x3b,
    0x17, 0x1c, 0x90, 0xbe, 0x61, 0x1f, 0xe6, 0xbc, 0xff, 0x06, 0xaf, 0xbd,
    0xc4, 0x54, 0x7e, 0xbe, 0x2e, 0x05, 0xb0, 0x3e, 0x58, 0x0a, 0x5c, 0xbc,
    0x54, 0x8d, 0x2f, 0x3d, 0xc5, 0xb6, 0xb2, 0xbd, 0x4a, 0xa0, 0x34, 0xbe,
    0x69, 0xbb, 0xbc, 0x3c, 0x60, 0x74, 0x99, 0x3e, 0xb4, 0x27, 0x80, 0x3e,
    0x6a, 0x2f, 0xdf, 0x3d, 0xbf, 0x10, 0xbf, 0xbe, 0x18, 0xa8, 0xae, 0xbe,
    0x73, 0xee, 0x16, 0xbf, 0x9b, 0xfd, 0x08, 0xbe, 0x1b, 0x07, 0x7b, 0xbd,
    0xf6, 0x90, 0xcb, 0x3d, 0xda, 0x13, 0xea, 0x3d, 0x3f, 0x1c, 0xa6, 0x3e,
    0x6f, 0x82, 0x3e, 0xbe, 0x83, 0x74, 0x9f, 0xbe, 0x18, 0x83, 0x57, 0x3c,
    0xd7, 0x9f, 0x5c, 0xbb, 0x6a, 0x78, 0x81, 0x3e, 0x35, 0xb1, 0x10, 0xbe,
    0x20, 0x9b, 0x47, 0xbe, 0x52, 0x95, 0x9e, 0xbe, 0xfb, 0xa0, 0xff, 0xbd,
    0x84, 0x61, 0x54, 0x3c, 0x1c, 0x2f, 0xcd, 0x3d, 0xfc, 0x00, 0xef, 0xbd,
    0xc2, 0x6d, 0x95, 0xbd, 0x10, 0x96, 0x3d, 0x3e, 0x07, 0x69, 0x08, 0x3e,
    0xab, 0xe8, 0xe8, 0xbd, 0x87, 0x6d, 0x30, 0xbe, 0xf0, 0x8b, 0x12, 0x3e,
    0xe1, 0xdd, 0x91, 0x3e, 0xc8, 0x9c, 0x1f, 0x3e, 0x00, 0x8c, 0x2a, 0x3e,
    0xb1, 0x61, 0x04, 0x3e, 0xe0, 0x98, 0x72, 0xbe, 0x81, 0xe5, 0x20, 0xbc,
    0x70, 0xa6, 0xac, 0xbe, 0xaf, 0x8d, 0x52, 0x3e, 0x6e, 0x46, 0x9a, 0x3d,
    0xc6, 0xcc, 0x20, 0x3e, 0xe8, 0xcd, 0xa0, 0xbd, 0x60, 0x64, 0x58, 0xbe,
    0xfd, 0xb6, 0x3f, 0xbe, 0xe4, 0xa5, 0x18, 0xbe, 0x74, 0x8f, 0x24, 0x3e,
    0x41, 0x16, 0xa4, 0xbe, 0x3d, 0x71, 0x09, 0x3f, 0x65, 0x1d, 0xee, 0xbc,
    0xa8, 0x59, 0xcc, 0x3c, 0xd9, 0xfb, 0xf8, 0xbc, 0x5a, 0x51, 0xff, 0xbd,
    0xfc, 0x52, 0xb5, 0xbd, 0xba, 0xe4, 0x0c, 0x3e, 0x02, 0x0d, 0x1f, 0xbe,
    0x01, 0xc2, 0x92, 0xbd, 0x0e, 0xf5, 0x5e, 0xbe, 0xda, 0x2c, 0x84, 0xbd,
    0x2a, 0x9a, 0x2a, 0x3e, 0xfb, 0xc1, 0xc7, 0xbd, 0x88, 0xf8, 0xab, 0xbd,
    0x33, 0xf1, 0x5c, 0x3e, 0x62, 0x3e, 0x21, 0x3d, 0xc8, 0x11, 0xb6, 0x3d,
    0xa2, 0xc4, 0xfe, 0x3d, 0x69, 0xa9, 0xe6, 0xbc, 0x80, 0x8a, 0x3a, 0xbe,
    0xb2, 0x9f, 0x02, 0xbe, 0x57, 0x9a, 0x08, 0x3e, 0x9c, 0x91, 0x82, 0x3d,
    0x2b, 0xab, 0xbb, 0xbe, 0x1b, 0x77, 0xb2, 0x3d, 0x2e, 0xc6, 0x81, 0x3d,
    0x3e, 0x5f, 0x4f, 0xbd, 0x55, 0x5c, 0x97, 0xbc, 0x6b, 0xee, 0x00, 0x3e,
    0x74, 0x90, 0x14, 0xbe, 0xa1, 0x08, 0xa4, 0x3c, 0x44, 0xe9, 0xda, 0xbd,
    0x09, 0x82, 0x23, 0x3e, 0xa9, 0x6a, 0x67, 0xbe, 0x09, 0x67, 0x0e, 0xbe,
    0xc1, 0xc2, 0xf7, 0xbd, 0xa0, 0x4d, 0xbf, 0xbe, 0xff, 0xc2, 0xb8, 0x3d,
    0x5d, 0x6e, 0x38, 0x3e, 0x3e, 0x15, 0xe6, 0xbd, 0x0f, 0x53, 0xc0, 0x3e,
    0x1f, 0xaa, 0x93, 0x3e, 0x1d, 0xc7, 0x0d, 0xbf, 0x28, 0xd4, 0x9f, 0xbe,
    0x6d, 0xd5, 0x3f, 0xbd, 0xd6, 0x44, 0x0f, 0x3e, 0xe7, 0x8e, 0x8a, 0x3e,
    0xd9, 0x0d, 0x44, 0x3d, 0x5b, 0xb1, 0x7e, 0xbc, 0x22, 0x69, 0x7c, 0x3d,
    0x94, 0x63, 0xc3, 0xbc, 0xe9, 0xc1, 0xc1, 0xbd, 0xd9, 0x31, 0x1c, 0xbd,
    0x80, 0xb8, 0xfc, 0x3d, 0x83, 0x79, 0x20, 0xbd, 0x1c, 0x55, 0x31, 0xbe,
    0xa7, 0x05, 0xea, 0x3e, 0x10, 0x1b, 0x96, 0xbe, 0xc4, 0x2d, 0x70, 0x3d,
    0xcb, 0xb4, 0xbb, 0xbd, 0xb4, 0x14, 0xa0, 0x3d, 0x48, 0x4c, 0x01, 0x3b,
    0xa6, 0x17, 0x2a, 0xbd, 0xfb, 0x2d, 0x94, 0x3d, 0x1f, 0x0b, 0x5a, 0xbe,
    0xed, 0xa7, 0xc4, 0xba, 0x36, 0x87, 0xa4, 0xbd, 0x62, 0x50, 0xe9, 0xbe,
    0x5e, 0x4f, 0xcb, 0xbd, 0x45, 0xf3, 0x01, 0xbf, 0xf2, 0xdf, 0xff, 0xff,
    0x04, 0x00, 0x00, 0x00, 0x00, 0x20, 0x00, 0x00, 0x9a, 0x6f, 0x5f, 0x3e,
    0x05, 0xaa, 0x45, 0xbd, 0xb7, 0xd7, 0x54, 0x3d, 0x58, 0x59, 0x8f, 0x3b,
    0xad, 0x06, 0x94, 0xbe, 0x1e, 0x7d, 0x16, 0x3e, 0xfb, 0x0e, 0x5a, 0x3e,
    0x47, 0x82, 0xf3, 0x3d, 0xb6, 0xdc, 0x71, 0xbd, 0x37, 0x9c, 0xad, 0xbe,
    0xa9, 0x52, 0xbd, 0x3d, 0xe8, 0x85, 0xff, 0x3d, 0xff, 0xd2, 0x40, 0xbe,
    0xe1, 0x1d, 0x19, 0xbc, 0x3a, 0xc7, 0xf6, 0xbe, 0x20, 0xf6, 0xc6, 0x3d,
    0x0b, 0xdb, 0x9a, 0xbe, 0x93, 0xa8, 0x06, 0xbe, 0xd7, 0x9f, 0xc4, 0x3c,
    0xe5, 0x62, 0x3e, 0x3e, 0xaa, 0x04, 0x0a, 0xbd, 0xc6, 0x40, 0x58, 0xbf,
    0xdc, 0x47, 0x10, 0x3e, 0x84, 0x5d, 0xca, 0xbe, 0xcf, 0x92, 0xd9, 0xbd,
    0x68, 0xc1, 0x2f, 0xbe, 0x4c, 0x91, 0xef, 0x3d, 0x71, 0xcd, 0xb4, 0x3c,
    0x04, 0xa9, 0xbc, 0xbe, 0x97, 0x3d, 0x49, 0x3d, 0x31, 0x59, 0x0a, 0x3f,
    0x93, 0x6f, 0x5c, 0x3e, 0x38, 0x4a, 0x13, 0xbe, 0x63, 0xba, 0xc2, 0xbe,
    0x06, 0x47, 0x07, 0xbf, 0x06, 0x7b, 0x8b, 0x3d, 0xec, 0x87, 0x04, 0x3e,
    0xce, 0xee, 0xb9, 0x3e, 0xcf, 0x7e, 0x93, 0xbe, 0x2e, 0x1d, 0xa4, 0x3d,
    0x53, 0x06, 0xd8, 0xbe, 0xc1, 0x6c, 0xea, 0x3c, 0x4e, 0xb3, 0x4b, 0x3d,
    0xf1, 0x89, 0xe8, 0xbd, 0xfb, 0xf7, 0x1a, 0xbe, 0x51, 0x27, 0xa5, 0x3e,
    0x95, 0xcc, 0x2b, 0xbe, 0x70, 0x83, 0x21, 0x3d, 0xe2, 0x9f, 0x89, 0xbc,
    0xb1, 0xec, 0x8d, 0x3d, 0x69, 0x38, 0x62, 0xbe, 0xa4, 0xc8, 0x65, 0xbe,
    0x19, 0xe2, 0x62, 0x3e, 0x70, 0x5c, 0xe3, 0x3e, 0x53, 0xad, 0x41, 0xbe,
    0x1f, 0x16, 0x5b, 0xbe, 0xe2, 0x50, 0x17, 0xbf, 0xd0, 0xdf, 0x1a, 0xbe,
    0x40, 0x61, 0xda, 0x3d, 0x73, 0x50, 0x60, 0x3e, 0xdd, 0xd1, 0x8a, 0x3d,
    0x7b, 0xfa, 0xb5, 0xbe, 0x17, 0xf3, 0x45, 0xbe, 0x6c, 0xc6, 0x8d, 0xbe,
    0xb2, 0xec, 0xcd, 0x3d, 0x70, 0x0e, 0x02, 0x3e, 0x23, 0x66, 0x10, 0x3e,
    0x9c, 0x77, 0xbe, 0xbe, 0xf5, 0x54, 0x39, 0x3e, 0x74, 0x17, 0x6e, 0xbe,
    0x21, 0x8e, 0x1e, 0xbe, 0xbe, 0x71, 0x1f, 0x3e, 0x69, 0xcd, 0x16, 0xbe,
    0xe5, 0x68, 0x88, 0xbe, 0x5e, 0x40, 0xc3, 0xbd, 0x07, 0xad, 0x79, 0xbc,
    0x09, 0x6c, 0x55, 0x3e, 0xed, 0x89, 0x13, 0x3e, 0x51, 0x0d, 0x46, 0xbe,
    0xac, 0x04, 0x6c, 0x3e, 0x1a, 0x72, 0xbf, 0x3d, 0xe2, 0xae, 0xfe, 0x3c,
    0x5c, 0x76, 0x85, 0xbd, 0x52, 0x90, 0x74, 0x3e, 0x95, 0x3c, 0xbb, 0xbe,
    0xd7, 0x17, 0xf6, 0x3d, 0x59, 0x99, 0xab, 0xbe, 0x19, 0xdd, 0x7b, 0x3e,
    0xfc, 0x32, 0xd3, 0x3d, 0x0c, 0xfc, 0x57, 0xbe, 0xa5, 0x0b, 0x8c, 0x3d,
    0x86, 0xa3, 0x58, 0x3e, 0x2e, 0x45, 0x03, 0x3f, 0x3d, 0x02, 0xe2, 0x3d,
    0xb3, 0x5a, 0x02, 0xbe, 0x0a, 0x59, 0x64, 0xbe, 0xa9, 0x43, 0x90, 0xbf,
    0x1c, 0x9d, 0x7e, 0xbc, 0xc1, 0xbc, 0x12, 0xbf, 0x7a, 0xf0, 0x10, 0xbe,
    0x82, 0x5b, 0xbb, 0xbd, 0x37, 0x8c, 0x85, 0xbe, 0x49, 0xb9, 0xfb, 0xbe,
    0x1d, 0xd9, 0x47, 0x3d, 0x5d, 0xe3, 0xb1, 0x3e, 0x8d, 0x94, 0x11, 0x3d,
    0xac, 0x0d, 0xc9, 0xbe, 0xbb, 0xb7, 0x22, 0x3d, 0xfe, 0x0c, 0x80, 0xbe,
    0xa9, 0xbf, 0xa3, 0xbd, 0xc7, 0xeb, 0x5a, 0xbe, 0x40, 0x45, 0xf3, 0xbe,
    0x19, 0x80, 0xd3, 0xbe, 0xac, 0x93, 0x5c, 0x3e, 0x7d, 0xa3, 0xeb, 0xbd,
    0x7a, 0x6a, 0xab, 0x3c, 0x58, 0xd2, 0x14, 0x3e, 0x54, 0x48, 0x6b, 0x3d,
    0x4e, 0x2f, 0x3b, 0xbe, 0xd5, 0x68, 0xa9, 0x3c, 0x9d, 0x3e, 0xdd, 0xbe,
    0xea, 0x5b, 0xfc, 0xbe, 0xd0, 0x00, 0x07, 0xbf, 0x38, 0x06, 0x55, 0xbf,
    0x4f, 0x73, 0x2c, 0xbe, 0x77, 0x17, 0x4f, 0xbe, 0x14, 0x17, 0xab, 0x3e,
    0x90, 0xb7, 0x9c, 0xbe, 0x0a, 0xdf, 0x0c, 0x3e, 0x72, 0xa9, 0xe8, 0xbe,
    0x2d, 0x6d, 0x82, 0xbf, 0x22, 0xb0, 0xb9, 0x3c, 0x06, 0x8f, 0xac, 0xbc,
    0x26, 0x12, 0x6e, 0x3e, 0xd7, 0xbb, 0xb3, 0x3d, 0xa8, 0xc5, 0x29, 0xbe,
    0x86, 0x62, 0x45, 0xbe, 0x40, 0xda, 0xef, 0x3d, 0xc5, 0x80, 0xb8, 0x3d,
    0xab, 0x71, 0xae, 0xbe, 0xd7, 0x1f, 0x13, 0xbe, 0xf2, 0x69, 0xc3, 0xbe,
    0x12, 0x1a, 0x10, 0xbf, 0x60, 0x82, 0x13, 0x3e, 0x42, 0x27, 0x98, 0xbd,
    0xfd, 0x3b, 0xc5, 0x3e, 0xf2, 0x53, 0x1e, 0xbf, 0x9b, 0x75, 0x8d, 0xbe,
    0x10, 0x72, 0xa2, 0xbd, 0x78, 0x33, 0xf5, 0xbd, 0xc3, 0x81, 0x5f, 0xbd,
    0xaa, 0xbd, 0x35, 0xbf, 0x36, 0x69, 0x93, 0xbe, 0x18, 0x5d, 0x09, 0x3e,
    0xbc, 0x13, 0x1d, 0x3d, 0x00, 0xbf, 0xc7, 0x3d, 0x9d, 0x0b, 0x95, 0x3c,
    0xb1, 0xed, 0x3a, 0x3e, 0x3a, 0x12, 0x52, 0xbe, 0x2e, 0x81, 0x40, 0xbd,
    0x5c, 0x3d, 0xe7, 0x3d, 0xa1, 0xa5, 0x8d, 0xbe, 0xa6, 0xaa, 0x81, 0xbe,
    0x5e, 0xe3, 0x34, 0xbe, 0x51, 0x4b, 0x47, 0x3e, 0xbe, 0x60, 0x20, 0xbe,
    0xbe, 0xae, 0x07, 0xbe, 0xb2, 0xfa, 0x16, 0x3e, 0x45, 0x90, 0xa6, 0xbe,
    0x14, 0xbf, 0x94, 0xbe, 0x34, 0x76, 0xc4, 0xbc, 0xeb, 0x64, 0x7a, 0x3d,
    0x66, 0xd2, 0xbb, 0xbe, 0xc5, 0x97, 0x5d, 0xbe, 0xfc, 0x51, 0xbb, 0xbe,
    0x37, 0xb6, 0xa2, 0x3d, 0xc2, 0xe3, 0x0a, 0x3e, 0x0f, 0x95, 0x8d, 0xbd,
    0xd6, 0x33, 0x9d, 0xbd, 0x06, 0x9d, 0x46, 0x3c, 0xa0, 0x07, 0xfa, 0xbe,
    0xa7, 0xf6, 0x8b, 0x3e, 0xc9, 0x49, 0xa9, 0xbe, 0x01, 0x1c, 0xcb, 0x3d,
    0x23, 0x74, 0xa9, 0xbb, 0xfa, 0x1e, 0xbc, 0xbe, 0x7d, 0x0e, 0xcf, 0xbe,
    0x45, 0xcc, 0x12, 0xbe, 0x79, 0x62, 0xbf, 0xbe, 0x5b, 0x94, 0x0d, 0xbd,
    0x3c, 0x9d, 0x68, 0xbe, 0xa4, 0x63, 0xe5, 0x3d, 0x7e, 0x17, 0xfe, 0xbe,
    0x05, 0x1f, 0xb4, 0x3e, 0x84, 0x02, 0x3c, 0xbe, 0xea, 0x0b, 0x11, 0xbe,
    0x9b, 0x03, 0x7d, 0x3e, 0xce, 0x24, 0x09, 0x3d, 0x9e, 0x1b, 0xed, 0x3d,
    0xbd, 0x2d, 0x32, 0xbe, 0xc4, 0x39, 0x3e, 0xbd, 0xcb, 0xd5, 0xa5, 0x3e,
    0xd6, 0x54, 0xb6, 0xbe, 0x6a, 0xd7, 0x7a, 0xbe, 0x6f, 0xae, 0x1b, 0x3d,
    0x59, 0xa1, 0xc9, 0xbe, 0x0b, 0x76, 0xb9, 0xbc, 0x88, 0x45, 0x07, 0x3e,
    0xee, 0x9d, 0x0c, 0x3e, 0xe1, 0xb7, 0x04, 0x3d, 0xf3, 0xdd, 0xcd, 0x3e,
    0x35, 0x1a, 0xcf, 0x3d, 0xd3, 0xc4, 0x8f, 0x3e, 0xfb, 0x9f, 0xa1, 0x3e,
    0x8f, 0x27, 0x16, 0xbe, 0xec, 0x80, 0x4c, 0x3e, 0x04, 0xf5, 0x48, 0x3c,
    0x6c, 0xf0, 0x33, 0xbe, 0x6d, 0xe8, 0x63, 0xbe, 0x09, 0x66, 0x14, 0xbf,
    0x95, 0x61, 0xf1, 0x3d, 0x77, 0x5f, 0xe9, 0xbd, 0x12, 0x0c, 0x97, 0xbd,
    0xd5, 0xf5, 0x04, 0xbf, 0xba, 0xab, 0xd7, 0xbe, 0xf6, 0x85, 0xfe, 0xbe,
    0x74, 0x37, 0xc0, 0x3d, 0xf4, 0x6f, 0x23, 0x3e, 0x52, 0x21, 0xc3, 0xbe,
    0xef, 0xec, 0xd8, 0x3d, 0xe9, 0xfe, 0xd7, 0x3e, 0x46, 0xf5, 0x07, 0xbe,
    0x4f, 0x41, 0x00, 0xbf, 0xfe, 0x5c, 0xfc, 0xbd, 0x78, 0x2a, 0xe3, 0xbd,
    0x49, 0x92, 0xad, 0x3d, 0xd9, 0x1b, 0xee, 0xbd, 0x5b, 0x7c, 0x04, 0xbf,
    0x28, 0xa2, 0xcf, 0x3d, 0xc3, 0x88, 0xc2, 0xbe, 0xa2, 0x30, 0x05, 0x3e,
    0x24, 0x7e, 0x6c, 0xbe, 0x43, 0x64, 0x8f, 0xbe, 0xd5, 0x4b, 0x17, 0xbf,
    0x8c, 0x0b, 0xd6, 0xbd, 0x96, 0xcd, 0x26, 0xbe, 0x85, 0x98, 0xa5, 0xbc,
    0xa9, 0x5a, 0xd9, 0x3c, 0x21, 0x59, 0xcd, 0xbd, 0x1d, 0x88, 0x90, 0x3e,
    0xcb, 0xfb, 0x3a, 0x3e, 0x77, 0xf3, 0xbf, 0x3d, 0x9f, 0xc7, 0x0b, 0x3e,
    0xf1, 0x86, 0x58, 0xbe, 0x66, 0x48, 0x0e, 0xbd, 0x12, 0x74, 0xac, 0xbe,
    0x42, 0x60, 0xa6, 0x3e, 0xfb, 0x18, 0x8e, 0x3e, 0x22, 0xd2, 0x91, 0x3d,
    0x68, 0x57, 0x77, 0xbe, 0xa2, 0xa0, 0x9d, 0xbe, 0x85, 0xdf, 0x85, 0x3d,
    0xd9, 0x13, 0x5a, 0xbe, 0x4e, 0x9f, 0x43, 0x3e, 0x56, 0xf3, 0xe0, 0x3d,
    0xd6, 0x0b, 0x22, 0xbe, 0xca, 0x48, 0x0a, 0x3e, 0xbd, 0xaa, 0x07, 0xbf,
    0xe3, 0x11, 0x5d, 0xbe, 0xbb, 0x9a, 0xd7, 0x3c, 0xc9, 0x16, 0x90, 0xbc,
    0xb4, 0xa3, 0x3f, 0xbe, 0xba, 0x4c, 0xcd, 0x3d, 0xc5, 0x03, 0xc5, 0xbd,
    0x37, 0x89, 0x83, 0x3c, 0xc5, 0xfc, 0x94, 0x3c, 0x1c, 0x3d, 0x42, 0xbe,
    0xb6, 0x59, 0x4e, 0x3e, 0xef, 0x94, 0xb0, 0xbe, 0x27, 0x74, 0x68, 0x3e,
    0xe1, 0xd8, 0x5b, 0x3e, 0x88, 0xa3, 0xc6, 0x3d, 0xed, 0x2d, 0xff, 0x3d,
    0xc6, 0x27, 0x1b, 0x3e, 0xf8, 0x69, 0xdb, 0xbe, 0x0c, 0x73, 0x02, 0xbf,
    0x66, 0x90, 0x63, 0x3d, 0xec, 0x4d, 0x86, 0x3d, 0x53, 0xfc, 0x0e, 0x3e,
    0x64, 0x97, 0xcc, 0xbe, 0x39, 0xa0, 0x10, 0x3e, 0x5c, 0xdc, 0x1b, 0xbd,
    0xc6, 0x77, 0x21, 0x3e, 0xe0, 0x70, 0x79, 0xbc, 0x79, 0xa7, 0x0e, 0x3e,
    0xbb, 0xe0, 0x35, 0xbe, 0x23, 0xee, 0xac, 0xbb, 0x9e, 0xc3, 0xc0, 0x3d,
    0x20, 0xb1, 0x83, 0x3d, 0x5d, 0x59, 0x21, 0xbf, 0xd9, 0xfa, 0x1d, 0xbf,
    0x69, 0x68, 0x87, 0xbe, 0x44, 0xf9, 0x22, 0x3e, 0xe5, 0x21, 0xf6, 0x3c,
    0x5b, 0x6b, 0x2c, 0xbe, 0xe8, 0x0a, 0xa1, 0xbd, 0x9d, 0x13, 0x49, 0xbe,
    0x60, 0x66, 0xbf, 0xbc, 0x24, 0x17, 0xcf, 0xbc, 0x8d, 0x19, 0x05, 0xbf,
    0xe1, 0x0c, 0xf7, 0xbd, 0x9d, 0x2d, 0x11, 0xbd, 0x41, 0xed, 0x75, 0xbe,
    0xca, 0xb5, 0xe1, 0x3e, 0x47, 0xeb, 0xdc, 0x3d, 0x05, 0x9d, 0x64, 0xbd,
    0x47, 0x5f, 0x01, 0xbf, 0x26, 0x55, 0x02, 0x3d, 0x4a, 0x8f, 0x0f, 0x3d,
    0x4c, 0x8b, 0x00, 0xbf, 0x99, 0x3a, 0x38, 0xbe, 0x2f, 0x67, 0x87, 0xbe,
    0x45, 0x25, 0x5e, 0xbd, 0xed, 0xe5, 0x81, 0xbd, 0xb5, 0x27, 0xb8, 0x3d,
    0xd1, 0x56, 0xe6, 0xbe, 0x4d, 0x87, 0x1f, 0xbe, 0x2c, 0x06, 0xbd, 0xbe,
    0xd1, 0x7a, 0x30, 0xbd, 0xd1, 0xdc, 0x93, 0x3d, 0x3f, 0x3a, 0x36, 0xbf,
    0xe2, 0xc1, 0xed, 0xbd, 0x21, 0xbb, 0x85, 0xbe, 0x74, 0xe5, 0xe4, 0xbb,
    0x3c, 0x1b, 0xff, 0xbc, 0x30, 0xa6, 0x4b, 0xbe, 0x7e, 0x99, 0xca, 0xbe,
    0xd2, 0x37, 0x85, 0x3d, 0xc9, 0xca, 0xb3, 0x3e, 0xbc, 0x52, 0x19, 0x3e,
    0xaf, 0x6c, 0x9a, 0xbd, 0x4a, 0x74, 0x8f, 0x3e, 0x4f, 0x6f, 0x5b, 0xbe,
    0x39, 0x30, 0x9f, 0x3e, 0x87, 0x09, 0x04, 0xbf, 0xa4, 0xe3, 0x38, 0xbe,
    0x0c, 0xa0, 0x24, 0xbe, 0xb9, 0xde, 0x2f, 0x3e, 0x66, 0xfc, 0x73, 0xba,
    0x24, 0x56, 0x26, 0x3e, 0x96, 0x7f, 0xdd, 0xbe, 0x89, 0x6e, 0xf2, 0x3c,
    0x48, 0x8e, 0x07, 0x3e, 0xe2, 0xbd, 0x09, 0xbd, 0xeb, 0x82, 0xee, 0x3d,
    0x82, 0x62, 0xfd, 0xbd, 0xfc, 0xf2, 0xec, 0xbe, 0xde, 0x06, 0x39, 0x3e,
    0x69, 0x0b, 0xc8, 0x3e, 0xbb, 0x03, 0x81, 0xbe, 0x60, 0x21, 0x4e, 0xbf,
    0x96, 0xe4, 0x24, 0x3e, 0x4f, 0x13, 0x68, 0x3e, 0x7b, 0x3a, 0x6b, 0x3d,
    0xac, 0x5c, 0xd4, 0x3d, 0xab, 0xe9, 0x06, 0xbf, 0x32, 0x04, 0xc6, 0xbe,
    0x69, 0xb6, 0x3c, 0x3e, 0x0d, 0x00, 0xd7, 0xbd, 0x8b, 0xc7, 0xdb, 0x3d,
    0x45, 0xb9, 0x3a, 0xbf, 0x83, 0x84, 0xda, 0x3c, 0x7b, 0xf8, 0xa7, 0xbd,
    0xb6, 0x1b, 0x91, 0xbe, 0x7a, 0xe9, 0xcc, 0xbd, 0x45, 0xef, 0x01, 0xbf,
    0x7c, 0x45, 0x31, 0xbd, 0xfb, 0x94, 0x23, 0x3e, 0x4a, 0xfa, 0xb7, 0x3d,
    0x18, 0x5e, 0x7a, 0x3c, 0x13, 0x13, 0xb1, 0x3d, 0xdc, 0x95, 0x7b, 0xbb,
    0x06, 0x35, 0x0a, 0xbe, 0x54, 0x7e, 0x81, 0xbe, 0x73, 0xd3, 0x23, 0xbe,
    0x5c, 0xe4, 0x1c, 0xbd, 0x67, 0xce, 0x6c, 0x3d, 0x08, 0x65, 0x93, 0xbd,
    0xeb, 0xdf, 0x0e, 0xbe, 0x39, 0xda, 0x0b, 0x3e, 0x2d, 0xae, 0x1a, 0x3e,
    0xa9, 0xcd, 0xad, 0xbd, 0xa7, 0xc5, 0x56, 0x3d, 0x0b, 0x2c, 0x27, 0xbd,
    0x65, 0xa7, 0xa0, 0x3d, 0xd6, 0x36, 0xe2, 0x3e, 0xda, 0xc3, 0xf1, 0xbd,
    0x2b, 0x44, 0x9a, 0x3e, 0x78, 0x2d, 0x8f, 0x3c, 0x34, 0x05, 0x49, 0xbe,
    0x27, 0x69, 0xc9, 0xbd, 0x32, 0x24, 0x41, 0xbe, 0x04, 0x70, 0x35, 0x3e,
    0x2e, 0xcd, 0x82, 0xba, 0xcb, 0xab, 0x37, 0xbe, 0x1e, 0x0b, 0x24, 0xbf,
    0xfc, 0xa0, 0xdf, 0xbd, 0x49, 0x61, 0xa5, 0x3e, 0x85, 0x38, 0x2e, 0xbd,
    0xe0, 0x06, 0x9f, 0xbc, 0xbb, 0xd1, 0x2c, 0xbe, 0xac, 0xe6, 0xb1, 0xbe,
    0xe9, 0xd8, 0xce, 0x3e, 0x3b, 0x5c, 0xe4, 0x3d, 0x51, 0x66, 0x30, 0xbc,
    0x31, 0xc5, 0xc8, 0xbe, 0xc1, 0xec, 0x08, 0xbe, 0x86, 0x16, 0x70, 0x3e,
    0xd8, 0x2c, 0xa4, 0xbe, 0x82, 0xd6, 0xa6, 0x3d, 0xed, 0xe8, 0x91, 0x3e,
    0xe7, 0x50, 0x2f, 0xbd, 0xdf, 0x9e, 0x72, 0x3e, 0x19, 0xb5, 0xfc, 0xbd,
    0xb7, 0x73, 0x85, 0xbe, 0x78, 0xbd, 0xb6, 0xbd, 0xe3, 0xfc, 0x31, 0x3e,
    0xcd, 0xd7, 0xb9, 0x3d, 0xb9, 0x0a, 0xee, 0xbe, 0xc2, 0xbb, 0x78, 0x3e,
    0xdf, 0xd2, 0x06, 0x3e, 0x3e, 0xc1, 0xfc, 0x3a, 0x30, 0x97, 0xc4, 0x3d,
    0x5a, 0xf4, 0x7f, 0x3c, 0x30, 0xdb, 0xa2, 0x3e, 0x4c, 0x6b, 0xa4, 0x3e,
    0x0a, 0x40, 0xad, 0xbd, 0x77, 0x52, 0x08, 0x3f, 0xcb, 0xd6, 0xac, 0xbe,
    0xde, 0x45, 0x06, 0xbd, 0x39, 0xec, 0xdd, 0xbe, 0x33, 0x2c, 0x6b, 0xbd,
    0xa7, 0x6b, 0x55, 0xbe, 0xd3, 0xdf, 0x10, 0x3e, 0x05, 0x96, 0x60, 0x3e,
    0xf0, 0xa0, 0x25, 0xbd, 0x46, 0x45, 0xe0, 0x3d, 0x91, 0xa7, 0xb6, 0xbe,
    0xb4, 0xaf, 0xda, 0x3e, 0x8f, 0xe6, 0x07, 0x3f, 0x3b, 0x8c, 0xfb, 0x3c,
    0x98, 0x3f, 0x3a, 0x3d, 0x34, 0xf3, 0x86, 0x3d, 0x18, 0x34, 0xa8, 0xbc,
    0x94, 0xfe, 0x30, 0xbe, 0xba, 0x86, 0x9a, 0x3b, 0x05, 0x40, 0x39, 0x3e,
    0xa3, 0xfe, 0x8c, 0x3e, 0x72, 0xc1, 0xe4, 0x3d, 0xb4, 0x7e, 0x0e, 0xbf,
    0xb2, 0x45, 0x4d, 0xbe, 0x78, 0x47, 0x9c, 0xbd, 0x7b, 0x9f, 0xd4, 0xbd,
    0x7c, 0xe0, 0x06, 0x3e, 0xc5, 0x38, 0x98, 0xbe, 0x18, 0x1d, 0x25, 0x3e,
    0xe0, 0xcd, 0x51, 0xbc, 0x52, 0xca, 0xfb, 0x3d, 0x5c, 0x69, 0x67, 0xbe,
    0x62, 0xa7, 0x20, 0xbd, 0x26, 0xb4, 0x60, 0x3e, 0x9a, 0x4a, 0xd8, 0x3e,
    0xff, 0xb7, 0xe6, 0x3d, 0xcc, 0xa6, 0x50, 0xbe, 0xac, 0x78, 0x33, 0x3e,
    0x79, 0xaf, 0xbb, 0x3c, 0xcb, 0x49, 0x43, 0x3d, 0xf4, 0xf7, 0x22, 0x3d,
    0x0e, 0xe1, 0xf5, 0xbe, 0xac, 0x51, 0x39, 0xbe, 0x56, 0x2c, 0x48, 0x3e,
    0xba, 0x69, 0xbf, 0xbe, 0xdd, 0x62, 0x4e, 0x3e, 0xf1, 0x2f, 0xf4, 0xbd,
    0xdf, 0x23, 0xf4, 0xbd, 0x66, 0xf5, 0x65, 0xbd, 0x9b, 0x7a, 0xcf, 0xbe,
    0xde, 0x65, 0xf4, 0xbe, 0xef, 0xf1, 0x95, 0xbe, 0x1c, 0x3f, 0x23, 0x3e,
    0x38, 0xec, 0x1e, 0x3e, 0x30, 0x15, 0xc6, 0xbe, 0x5e, 0x1b, 0xe7, 0x3d,
    0xe9, 0xac, 0x4a, 0xbd, 0x3c, 0xb7, 0x80, 0x3d, 0x07, 0x50, 0xf3, 0xbe,
    0x98, 0x69, 0x1c, 0xbd, 0x3d, 0x86, 0x2f, 0xbe, 0x21, 0x67, 0xa1, 0xbe,
    0xfd, 0x37, 0xed, 0x3d, 0xf0, 0x8b, 0x7d, 0x3d, 0x2a, 0x97, 0x2e, 0xbe,
    0x1e, 0xc4, 0x24, 0xbe, 0x65, 0x65, 0x1b, 0xbd, 0xd4, 0xa8, 0x93, 0xbe,
    0xde, 0x48, 0xd4, 0x3e, 0x71, 0xa1, 0x93, 0x3e, 0x91, 0x8c, 0x34, 0xbd,
    0x1e, 0x90, 0x02, 0x3e, 0x41, 0xf5, 0x1a, 0xbf, 0x86, 0x78, 0xfc, 0x3d,
    0x5a, 0x29, 0xfe, 0xbe, 0x0f, 0x17, 0x8c, 0xbc, 0x4d, 0x01, 0x60, 0xbf,
    0xde, 0x72, 0x1a, 0xbe, 0x89, 0xa9, 0xd7, 0x3c, 0x5b, 0x21, 0x1a, 0x3e,
    0xf9, 0xfb, 0xa8, 0xbe, 0xf5, 0x7d, 0xfe, 0x3d, 0xab, 0x94, 0xa7, 0xbc,
    0x7d, 0x26, 0xbb, 0xbe, 0x56, 0x68, 0x85, 0x3d, 0xcb, 0x88, 0xd1, 0xbb,
    0x26, 0x37, 0x50, 0x3e, 0x2c, 0x3e, 0x01, 0xbe, 0x8b, 0x43, 0x84, 0xbe,
    0x33, 0xc2, 0x96, 0xbd, 0xc0, 0xa2, 0x62, 0x3e, 0x05, 0x77, 0x9c, 0x3e,
    0x75, 0xfd, 0xc7, 0x3d, 0x56, 0x25, 0x6d, 0xbe, 0xcb, 0x8b, 0xf1, 0xbc,
    0xbb, 0xea, 0x12, 0xbf, 0x39, 0x1f, 0x6b, 0xbb, 0x76, 0xbf, 0x9e, 0xbd,
    0x9a, 0xe0, 0xa6, 0xbe, 0xda, 0x60, 0x2a, 0xbd, 0x80, 0xdf, 0x93, 0x3d,
    0x0e, 0xb5, 0x41, 0x3d, 0x6a, 0x6f, 0x23, 0xbf, 0x59, 0x14, 0xfa, 0xbc,
    0xb8, 0x26, 0x17, 0xbf, 0x6f, 0x1d, 0x40, 0xbf, 0xfd, 0x73, 0x09, 0x3e,
    0x21, 0x90, 0xdc, 0xbd, 0xc8, 0xb9, 0x0d, 0xbd, 0x25, 0x5c, 0x38, 0xbb,
    0x16, 0x78, 0x8d, 0x3d, 0x06, 0xa3, 0x82, 0x3e, 0x3f, 0x36, 0xe0, 0x3e,
    0x6d, 0x4d, 0x81, 0x3e, 0x07, 0x7a, 0xa6, 0xbe, 0xe8, 0x5d, 0x96, 0x3e,
    0xcf, 0xec, 0x30, 0x3d, 0xff, 0x79, 0x86, 0x3d, 0xdd, 0xd1, 0xa4, 0x3d,
    0x43, 0x5b, 0x6d, 0x3e, 0x30, 0x9c, 0x7e, 0xbd, 0x8b, 0xe5, 0xdf, 0xbe,
    0x0b, 0x57, 0x0e, 0xbc, 0x70, 0x61, 0xef, 0x3d, 0x2d, 0x94, 0x2a, 0x3e,
    0x2c, 0x57, 0xaa, 0xbd, 0xbb, 0x8b, 0x39, 0xbf, 0xa6, 0x9c, 0xd9, 0xbe,
    0x86, 0x3a, 0x08, 0xbf, 0xaa, 0xba, 0x19, 0x3e, 0x9b, 0x61, 0x50, 0xbd,
    0x2d, 0x78, 0x1c, 0xbf, 0x9f, 0x11, 0x40, 0xbe, 0x9b, 0x8d, 0xd9, 0xbe,
    0x12, 0x1d, 0xd2, 0x3c, 0x70, 0x76, 0x3f, 0x3e, 0x67, 0x2f, 0xeb, 0x3d,
    0x5b, 0xcf, 0xe1, 0x3d, 0x13, 0x7a, 0xfc, 0xbe, 0x39, 0x89, 0x2a, 0xbe,
    0x5b, 0x1c, 0xcd, 0xbe, 0x20, 0x7a, 0xfb, 0xbd, 0x55, 0x6b, 0x90, 0x3e,
    0x4d, 0xca, 0x93, 0x3e, 0x32, 0x3e, 0x22, 0xbf, 0x45, 0xbe, 0x4a, 0xbe,
    0x57, 0x97, 0xb9, 0xbe, 0x4b, 0x78, 0x4d, 0xbd, 0x2f, 0x36, 0x07, 0xbd,
    0x8e, 0xcd, 0xc4, 0xbe, 0xd4, 0x69, 0x5e, 0x3e, 0x44, 0x7c, 0x73, 0xbe,
    0x1c, 0x64, 0x6b, 0x3d, 0xdf, 0x3f, 0x1c, 0x3d, 0xa8, 0x51, 0x98, 0xbd,
    0x99, 0x41, 0x3f, 0xbe, 0xfe, 0x4c, 0x4a, 0xbe, 0xf1, 0x61, 0xa0, 0xbe,
    0x24, 0x8a, 0xdf, 0x3d, 0x58, 0xff, 0x0f, 0x3e, 0x03, 0xbd, 0x70, 0x3e,
    0x48, 0x72, 0xa2, 0xbe, 0xf3, 0xab, 0x84, 0x3e, 0x4f, 0x5e, 0x8b, 0x3e,
    0xe8, 0x42, 0x06, 0xbe, 0x6a, 0x95, 0xdd, 0x3d, 0x8f, 0xc3, 0x9c, 0xbe,
    0xe1, 0x0e, 0x49, 0x3e, 0x96, 0xe7, 0x63, 0xbe, 0xee, 0x33, 0x33, 0x3e,
    0x74, 0x9b, 0x49, 0x3e, 0xec, 0x8e, 0x9c, 0xbe, 0xd4, 0x05, 0x84, 0xbe,
    0x59, 0x33, 0xd7, 0xbd, 0xa0, 0x3c, 0xb1, 0xbe, 0xdd, 0x37, 0xc7, 0xbe,
    0x95, 0x76, 0x1a, 0x3d, 0xae, 0xf5, 0x3f, 0xbe, 0x01, 0x42, 0x03, 0xbf,
    0x08, 0x91, 0x9d, 0x3d, 0xb8, 0x09, 0x2d, 0xbe, 0xac, 0x34, 0x13, 0x3e,
    0x9f, 0x6a, 0xf5, 0xbd, 0x6f, 0x86, 0xf4, 0x3d, 0x8b, 0xbb, 0x70, 0xbe,
    0xff, 0xa5, 0x3b, 0xbe, 0xe5, 0x2d, 0x18, 0xbf, 0x74, 0xbd, 0x21, 0xbf,
    0xbc, 0xd3, 0x20, 0xbd, 0xe2, 0xe1, 0xb0, 0x3e, 0xdb, 0x58, 0xf2, 0xbd,
    0xa0, 0x3e, 0x62, 0xbe, 0x75, 0x44, 0x32, 0x3c, 0x88, 0x6f, 0x5b, 0x3e,
    0x46, 0x24, 0x06, 0xbe, 0xef, 0x9e, 0x64, 0xbe, 0x2c, 0xd0, 0x09, 0xbc,
    0x60, 0x90, 0x45, 0xbe, 0xcb, 0x5e, 0x09, 0xbd, 0x81, 0xec, 0x2f, 0xbf,
    0x32, 0xe7, 0x1a, 0x3e, 0xbf, 0x22, 0x2f, 0xbe, 0xde, 0x65, 0x3b, 0x3e,
    0x33, 0x76, 0x04, 0xbe, 0x52, 0xf9, 0x1b, 0x3d, 0x2f, 0xc4, 0x0f, 0xbe,
    0xf3, 0x1d, 0xac, 0x3e, 0xca, 0x5b, 0x94, 0x3e, 0x63, 0xf9, 0xe1, 0xbe,
    0xe7, 0xa3, 0x71, 0x3e, 0x83, 0xad, 0x40, 0x3e, 0xf4, 0xfa, 0xcf, 0xbb,
    0x7e, 0x23, 0xab, 0xbe, 0xa7, 0x86, 0xc1, 0xbc, 0xa7, 0xda, 0xf3, 0x3d,
    0x44, 0x65, 0x6b, 0xbe, 0x06, 0xd8, 0xbb, 0xbd, 0x5e, 0xe0, 0x16, 0xbd,
    0x38, 0x5c, 0x8d, 0x3d, 0xd5, 0xee, 0x59, 0xbe, 0xa6, 0xaf, 0x64, 0x3b,
    0x3b, 0x2b, 0x0e, 0xbe, 0x4b, 0x9f, 0xa7, 0xbe, 0x58, 0xd9, 0x98, 0xbd,
    0x31, 0x01, 0x52, 0x3d, 0x5e, 0xd3, 0x96, 0x3d, 0x44, 0xfb, 0x16, 0xbf,
    0x6c, 0x42, 0x52, 0x3e, 0x50, 0x67, 0x62, 0x3d, 0xb3, 0xdf, 0x1e, 0xbe,
    0x51, 0xd5, 0x10, 0x3e, 0x99, 0xaf, 0x7e, 0x3d, 0x55, 0xa3, 0x62, 0x3e,
    0x43, 0x61, 0x8d, 0x3e, 0x5d, 0x8f, 0xbc, 0xbc, 0xe6, 0x6e, 0x4b, 0xbf,
    0x2e, 0xdb, 0x80, 0xbd, 0x6c, 0x7a, 0x0c, 0x3e, 0xd0, 0x0c, 0x9f, 0x3e,
    0x58, 0x55, 0xdf, 0xbd, 0x7d, 0x05, 0xcc, 0xbd, 0xd6, 0x9c, 0x6a, 0x3e,
    0x63, 0x9d, 0xa8, 0x3e, 0x86, 0x3a, 0x6e, 0xbe, 0x62, 0x41, 0xd8, 0xbd,
    0xbe, 0x12, 0x21, 0x3d, 0x61, 0x9c, 0x01, 0x3f, 0x2b, 0x26, 0x82, 0x3e,
    0x4b, 0x5a, 0x0a, 0x3d, 0x0b, 0xc7, 0x1e, 0xbd, 0x09, 0xc8, 0xd7, 0x3e,
    0x91, 0x07, 0x09, 0xbe, 0x6c, 0x89, 0x4c, 0x3d, 0x29, 0xc2, 0xfd, 0xbd,
    0x55, 0xa5, 0x0d, 0xbd, 0x03, 0xe8, 0x78, 0xbe, 0xaf, 0xc5, 0xe7, 0x3d,
    0x01, 0xec, 0x52, 0xbc, 0x9b, 0xcc, 0xe3, 0xbc, 0x2c, 0x04, 0x44, 0x3d,
    0x52, 0x25, 0x86, 0x3e, 0xde, 0x7b, 0x78, 0xbe, 0xb3, 0x55, 0x05, 0xbf,
    0xea, 0x50, 0xba, 0xbe, 0x3a, 0xfa, 0xd0, 0xbc, 0x2b, 0x1c, 0x45, 0xbe,
    0x99, 0x60, 0x43, 0x3f, 0x5e, 0xa0, 0xac, 0xbe, 0x5e, 0x13, 0x95, 0x3e,
    0xc5, 0xaf, 0x25, 0x3d, 0x2b, 0x1c, 0x01, 0xbf, 0x9f, 0x51, 0xbc, 0xbe,
    0xdf, 0x7a, 0x9d, 0xbe, 0xd6, 0xbf, 0x97, 0x3e, 0x00, 0x33, 0xec, 0xbe,
    0xc3, 0x4c, 0x23, 0xbd, 0xce, 0xd4, 0x34, 0xbe, 0x33, 0xb7, 0x46, 0xbc,
    0x8a, 0x6c, 0x74, 0x3e, 0xfe, 0xe4, 0x80, 0x3e, 0xe8, 0x85, 0xa0, 0xbd,
    0x64, 0xcb, 0xdb, 0x3d, 0x38, 0x3c, 0xdd, 0x3d, 0x39, 0x5d, 0x4d, 0x3e,
    0xe1, 0xcb, 0xca, 0xbe, 0x5f, 0xe2, 0x2a, 0xbe, 0x73, 0x92, 0x18, 0xbf,
    0x96, 0x7e, 0xa3, 0xbd, 0x54, 0x64, 0x5e, 0xbf, 0xe4, 0xa1, 0x3e, 0x3e,
    0x11, 0x03, 0xb1, 0x3c, 0x3d, 0xcb, 0x2e, 0xbc, 0xa0, 0x44, 0x07, 0xbe,
    0x6f, 0x3d, 0x55, 0xbc, 0xd9, 0x6d, 0xe6, 0xbd, 0x02, 0x9e, 0x75, 0x3e,
    0x14, 0x03, 0x9d, 0xbe, 0x1e, 0x65, 0x11, 0x3d, 0x57, 0x0e, 0xed, 0xbe,
    0xe6, 0xe5, 0x97, 0xbe, 0xc0, 0xf7, 0xbb, 0xbb, 0x7a, 0x1c, 0x98, 0xbd,
    0xf3, 0x2a, 0x1b, 0xbf, 0x60, 0x92, 0x68, 0x3d, 0x5a, 0xa6, 0x14, 0xbf,
    0xf8, 0x92, 0xd0, 0xbd, 0x9f, 0xfc, 0x03, 0x3e, 0x62, 0x7f, 0xde, 0x3d,
    0x9f, 0x2e, 0x3d, 0x3e, 0x13, 0x1e, 0x94, 0x3b, 0xce, 0xce, 0x33, 0x3d,
    0x37, 0x75, 0x0b, 0xbf, 0x28, 0xe3, 0xac, 0x3e, 0xaa, 0xa0, 0x0e, 0xbd,
    0x07, 0x96, 0x28, 0xbf, 0x8e, 0xa1, 0x90, 0xbe, 0x60, 0x99, 0xf8, 0xbe,
    0x0b, 0x72, 0xa6, 0xbe, 0xd1, 0x67, 0x3d, 0x3c, 0x95, 0xce, 0xf4, 0x3d,
    0x72, 0x35, 0x21, 0x3e, 0xaf, 0xf8, 0xb4, 0x3e, 0x8c, 0xd6, 0xbb, 0xbd,
    0xed, 0x5a, 0x1b, 0xbf, 0xdc, 0xc9, 0x90, 0xbb, 0xa3, 0x90, 0xf9, 0x3b,
    0x75, 0x17, 0x2c, 0xbf, 0xc3, 0xaa, 0xeb, 0xbe, 0xcb, 0x25, 0xf6, 0x3c,
    0x1b, 0x9c, 0xfd, 0xbc, 0xc2, 0x1a, 0x87, 0xbe, 0x8d, 0xb6, 0x0a, 0x3e,
    0x59, 0x1e, 0x83, 0xbe, 0x51, 0xa5, 0x1f, 0x3d, 0x38, 0x1b, 0xa2, 0x3e,
    0xea, 0x03, 0x9f, 0xbe, 0x6f, 0x8d, 0x49, 0x3e, 0x17, 0x01, 0x1f, 0x3d,
    0xe0, 0x20, 0x16, 0xbd, 0x87, 0x00, 0x6c, 0xbd, 0x28, 0xeb, 0x6a, 0x3e,
    0xfa, 0x7d, 0x41, 0xbd, 0xfa, 0x93, 0x3c, 0xbe, 0xfe, 0x34, 0x88, 0x3d,
    0x1d, 0xac, 0x1c, 0x3e, 0xc2, 0x55, 0x03, 0xbd, 0xf0, 0x64, 0x3b, 0x3d,
    0x46, 0xf4, 0x62, 0x3e, 0x59, 0x87, 0x43, 0xbd, 0x5e, 0xfd, 0xa7, 0xbe,
    0x00, 0x87, 0xfb, 0x3d, 0x44, 0x46, 0x3b, 0xbf, 0x53, 0xce, 0x64, 0xbd,
    0xd6, 0x8b, 0x9b, 0x3e, 0xfb, 0x5a, 0xc5, 0x3e, 0x2f, 0x67, 0xd1, 0xbd,
    0x28, 0x17, 0xa2, 0xbd, 0xfe, 0x7d, 0x1c, 0x3e, 0xf9, 0x7e, 0x05, 0xbe,
    0xb9, 0x85, 0xf4, 0x3d, 0x17, 0x35, 0xed, 0xbd, 0xb5, 0x0f, 0x20, 0xbf,
    0x0c, 0x52, 0x3c, 0xbe, 0x37, 0xbf, 0xb0, 0x3d, 0xda, 0x28, 0xbc, 0xbe,
    0xf3, 0x8d, 0x40, 0xbe, 0x9f, 0xc1, 0x40, 0xbf, 0x9b, 0x39, 0x66, 0x3e,
    0x12, 0x4c, 0x24, 0x3e, 0xcd, 0x41, 0xd5, 0x3c, 0x61, 0x6f, 0xdc, 0xbe,
    0x24, 0xc5, 0x0a, 0x3e, 0x3f, 0x4a, 0xf8, 0x3d, 0xcc, 0xf5, 0x97, 0xbe,
    0xce, 0x0b, 0x19, 0x3e, 0x42, 0x6c, 0xab, 0x3d, 0x5f, 0x2d, 0x1b, 0xbf,
    0xa8, 0x05, 0x42, 0xbf, 0x73, 0xc3, 0xad, 0x3e, 0x24, 0xa1, 0xa4, 0xbe,
    0x32, 0xc6, 0x2d, 0xbc, 0x49, 0x91, 0x19, 0x3d, 0x5a, 0x00, 0x34, 0x3e,
    0x86, 0x62, 0x5e, 0x3e, 0x91, 0xc1, 0xb2, 0xbe, 0x17, 0x45, 0x3b, 0xbd,
    0x78, 0xd5, 0x9e, 0x3d, 0x2d, 0xa3, 0xa5, 0xbe, 0x0e, 0x3f, 0x2d, 0x3e,
    0xb2, 0xf0, 0x0f, 0x3e, 0x78, 0x21, 0x02, 0x3e, 0xeb, 0x2d, 0x4b, 0x3e,
    0x64, 0x2c, 0xde, 0x3d, 0x1f, 0x86, 0x2a, 0x3e, 0x85, 0x50, 0x06, 0xbf,
    0x1c, 0x46, 0xa7, 0xbe, 0x3f, 0x09, 0xa1, 0xbe, 0x59, 0x61, 0x9c, 0xbe,
    0x6d, 0x9d, 0x0d, 0x3e, 0xad, 0x58, 0x73, 0xbd, 0x99, 0x85, 0x24, 0xbe,
    0x04, 0x20, 0x4c, 0xbe, 0x51, 0xb2, 0x4d, 0x3e, 0xd0, 0xa5, 0xc0, 0x3b,
    0xd1, 0xe8, 0xf8, 0xbd, 0x3f, 0x0d, 0x44, 0xbe, 0x1f, 0x30, 0xb0, 0x3e,
    0xe6, 0x09, 0x0e, 0x3e, 0xe6, 0x66, 0x73, 0x3e, 0x24, 0x73, 0x20, 0x3e,
    0xd0, 0x38, 0x0b, 0xbd, 0x6f, 0x18, 0xb8, 0xbe, 0xfe, 0xf6, 0xc0, 0xbe,
    0x2f, 0x77, 0x24, 0xbe, 0x54, 0xc7, 0x9f, 0xbd, 0x37, 0xd2, 0xeb, 0xbe,
    0xa2, 0x73, 0x9c, 0xbe, 0xf0, 0x41, 0xe2, 0x3c, 0xf0, 0x06, 0xb9, 0xbd,
    0xf4, 0xf7, 0x20, 0x3d, 0xd4, 0x7e, 0x72, 0x3e, 0x03, 0xad, 0x0b, 0xbd,
    0x6b, 0xd5, 0x94, 0x3c, 0xed, 0xa8, 0x84, 0x3e, 0x46, 0x80, 0xa8, 0xbe,
    0x9a, 0xc2, 0xcd, 0x3e, 0xa0, 0x03, 0xdf, 0xbd, 0xe0, 0x87, 0xea, 0xbd,
    0xdf, 0x40, 0xe8, 0xbd, 0xd2, 0x10, 0x15, 0x3d, 0x5d, 0x84, 0x03, 0xbe,
    0xb9, 0xc3, 0x86, 0xbd, 0xdc, 0xe0, 0x4c, 0x3d, 0x24, 0xe1, 0xed, 0xbe,
    0xdc, 0x79, 0x10, 0x3e, 0xfd, 0x8d, 0xa3, 0xbe, 0xa1, 0x30, 0x11, 0xbe,
    0x92, 0x0e, 0xb1, 0x3d, 0xfc, 0xda, 0x4d, 0xbe, 0x6d, 0x21, 0xa6, 0x3e,
    0x55, 0x5c, 0xf7, 0xbe, 0xec, 0x99, 0xa3, 0xbe, 0x88, 0xbc, 0x03, 0x3f,
    0x7c, 0xa8, 0x1f, 0x3c, 0xc5, 0xa2, 0xab, 0xbe, 0xc5, 0x05, 0x0e, 0x3f,
    0x62, 0xe3, 0xd8, 0xbc, 0x5c, 0xbd, 0x81, 0xbe, 0x78, 0x54, 0xac, 0xbe,
    0x11, 0x2f, 0x99, 0xbe, 0x5d, 0x6d, 0xec, 0xbd, 0x16, 0x03, 0x6b, 0x3e,
    0x0f, 0xee, 0xc7, 0x3e, 0x32, 0xa7, 0xbe, 0xbd, 0x79, 0x5c, 0xe2, 0xbc,
    0xc7, 0x2b, 0xe9, 0x3d, 0xf7, 0x04, 0x3a, 0xbe, 0x26, 0x4c, 0x9c, 0xbe,
    0x45, 0xd7, 0x51, 0x3e, 0x5f, 0x7f, 0xe0, 0x3d, 0xc6, 0x4a, 0xd5, 0x3d,
    0x9e, 0xed, 0xb2, 0x3d, 0x3d, 0xae, 0xbb, 0xbd, 0x72, 0x3e, 0xe5, 0xbe,
    0xfa, 0x5f, 0x43, 0x3e, 0x33, 0xce, 0xfd, 0xbd, 0xe1, 0x89, 0xb4, 0xbe,
    0xb6, 0xeb, 0xef, 0x3d, 0x3a, 0x72, 0x8b, 0x3d, 0xc2, 0xdf, 0xfa, 0xbe,
    0xcf, 0x67, 0x76, 0xbe, 0x50, 0x9e, 0xe9, 0xbe, 0xf2, 0xb7, 0x2f, 0x3d,
    0x47, 0xbf, 0x8d, 0xbe, 0x30, 0xa1, 0x44, 0x3e, 0x9a, 0x4a, 0x4d, 0x3d,
    0x7a, 0x10, 0x8d, 0xbc, 0x9f, 0x3a, 0xa1, 0x3e, 0x28, 0x07, 0x1e, 0xbc,
    0x05, 0x02, 0x88, 0x3e, 0xd1, 0xc8, 0xf4, 0xbe, 0x24, 0xb4, 0xef, 0x3d,
    0xde, 0x40, 0xbf, 0x3e, 0x03, 0xe6, 0x24, 0x3e, 0x20, 0x22, 0x54, 0x3d,
    0x6c, 0x13, 0x3c, 0x3e, 0x15, 0x48, 0x43, 0x3e, 0x76, 0x28, 0x6b, 0xbe,
    0x65, 0x55, 0xe7, 0x3d, 0xec, 0x91, 0x6f, 0xbe, 0x10, 0x73, 0x97, 0xbd,
    0x17, 0x73, 0xed, 0xbd, 0x4c, 0x6e, 0xa5, 0xbe, 0xa7, 0x3e, 0x1d, 0xbe,
    0xd9, 0xe9, 0xa7, 0x3e, 0xb2, 0x28, 0x9d, 0x3d, 0xf2, 0xc3, 0x7b, 0x3e,
    0x63, 0xea, 0x88, 0x3c, 0xb6, 0x5f, 0x1c, 0xbf, 0x57, 0x66, 0xf2, 0xbd,
    0xbf, 0x65, 0x0c, 0x3e, 0x4c, 0x09, 0x0f, 0x3e, 0x10, 0xd6, 0x20, 0xbf,
    0x32, 0xd6, 0xfe, 0xbe, 0xe1, 0xd8, 0x05, 0xbf, 0x58, 0x33, 0x5d, 0x3e,
    0xa5, 0xde, 0x91, 0x3d, 0xe1, 0x84, 0x2a, 0xbe, 0xbf, 0x21, 0x19, 0x3e,
    0xd9, 0xee, 0x20, 0xbe, 0x0f, 0x1d, 0x99, 0x3e, 0x32, 0xe4, 0xc0, 0x3d,
    0xb7, 0xc0, 0xdd, 0xbe, 0x6f, 0x6e, 0xc1, 0xbd, 0xd2, 0xbd, 0x95, 0xbc,
    0x16, 0x3f, 0xf1, 0xbc, 0x83, 0xe7, 0x42, 0x3e, 0x4d, 0xf5, 0xad, 0x3c,
    0x3c, 0xcf, 0x61, 0x3e, 0xd2, 0x94, 0x21, 0x3d, 0x80, 0xa9, 0xb5, 0xbd,
    0xa0, 0x4f, 0x21, 0xbd, 0x59, 0x4a, 0xd6, 0xbd, 0x9a, 0xa9, 0xf0, 0x3d,
    0xa7, 0x32, 0x59, 0xbf, 0x71, 0xa3, 0x19, 0x3e, 0x34, 0xcf, 0xb1, 0x3d,
    0x91, 0xf5, 0x24, 0xbf, 0x7b, 0x02, 0x4c, 0xbe, 0xdc, 0x91, 0x1e, 0xbf,
    0x30, 0x39, 0x36, 0x3e, 0x49, 0xa6, 0x6f, 0xbd, 0x8a, 0x67, 0x38, 0xbd,
    0x8b, 0x60, 0xb0, 0x3d, 0x68, 0xc0, 0xcb, 0xbe, 0xbe, 0x24, 0xcd, 0x3d,
    0xee, 0x08, 0xd5, 0xbe, 0x06, 0x13, 0xe4, 0xbb, 0x58, 0x4e, 0xf2, 0xbd,
    0xa6, 0xc0, 0xcf, 0xbd, 0xcd, 0x34, 0x86, 0xbe, 0xaf, 0x36, 0xd3, 0x3e,
    0x02, 0x54, 0xb6, 0xbd, 0x28, 0x28, 0x92, 0x3e, 0xc0, 0x52, 0x9a, 0x3e,
    0xed, 0xb2, 0x5c, 0xbe, 0x47, 0xaa, 0x62, 0xbe, 0xc4, 0x7c, 0x8c, 0x3e,
    0x58, 0xf7, 0x24, 0x3e, 0xa7, 0xaf, 0x05, 0x3e, 0x3f, 0x96, 0x8b, 0xbe,
    0xdc, 0x90, 0x06, 0xbf, 0x1b, 0x46, 0x00, 0xbe, 0x69, 0xd8, 0xa2, 0x3d,
    0x3e, 0x57, 0x2d, 0xbd, 0xdf, 0x2a, 0x7b, 0xbe, 0x40, 0x9f, 0xa6, 0xbd,
    0xa1, 0xe3, 0xe1, 0xbe, 0x49, 0xb3, 0x25, 0x3e, 0x79, 0x5d, 0x0f, 0xbf,
    0xe4, 0x46, 0x8c, 0xbe, 0x89, 0x54, 0x2a, 0xbf, 0x8b, 0xf6, 0x79, 0x3e,
    0x73, 0xe0, 0x36, 0xbd, 0x0b, 0xfa, 0x83, 0xbe, 0xc1, 0x07, 0x28, 0xbe,
    0xdf, 0x10, 0xa6, 0xbc, 0x9a, 0xb8, 0x2c, 0xbf, 0xff, 0xfa, 0x50, 0xbe,
    0xcc, 0xfc, 0x91, 0xbe, 0xfc, 0x9a, 0x59, 0xbe, 0xd6, 0x00, 0xa1, 0x3d,
    0xd2, 0xf1, 0xac, 0xbc, 0x1b, 0x86, 0x36, 0xbe, 0x76, 0x43, 0x18, 0xbf,
    0x38, 0xbb, 0x8b, 0x3c, 0x66, 0xad, 0xf0, 0xbe, 0x39, 0xdb, 0x94, 0xbe,
    0x45, 0xbd, 0x09, 0x3e, 0x50, 0x4a, 0xbe, 0xbe, 0x20, 0x8f, 0x55, 0x3e,
    0x45, 0xa5, 0xcd, 0x3d, 0x01, 0x33, 0x50, 0xbd, 0xf2, 0xda, 0x7b, 0x3e,
    0x3c, 0xab, 0xa2, 0x3e, 0x46, 0xbb, 0x80, 0xbe, 0x0c, 0x7e, 0x7a, 0x3e,
    0xb7, 0x3b, 0xd9, 0xbd, 0xc2, 0x74, 0x9c, 0xbd, 0x98, 0x20, 0xc8, 0xbc,
    0x83, 0x08, 0x30, 0x3d, 0x05, 0x04, 0x8e, 0x3e, 0xc6, 0xcb, 0x49, 0x3d,
    0x77, 0x32, 0xd6, 0x3d, 0x36, 0x23, 0xb2, 0x3e, 0xc8, 0x1a, 0xa7, 0x3e,
    0xe1, 0x63, 0xd7, 0xbd, 0x73, 0x47, 0x57, 0x3d, 0x64, 0xaf, 0x4e, 0xbe,
    0x0c, 0xf0, 0x8a, 0x3e, 0xf0, 0x48, 0x16, 0x3d, 0x67, 0x5f, 0xf1, 0xbd,
    0x78, 0x7d, 0x8d, 0x3d, 0x5d, 0x0d, 0x4d, 0xbe, 0xf2, 0x7c, 0x57, 0xbe,
    0xed, 0x54, 0x6a, 0xbe, 0x16, 0xdf, 0x6b, 0xbc, 0x07, 0x4d, 0x1f, 0xbe,
    0x14, 0xd6, 0x62, 0xbe, 0xbb, 0x83, 0x20, 0x3e, 0xd6, 0x15, 0xc9, 0xbd,
    0x85, 0xf1, 0x5a, 0x3d, 0x10, 0x51, 0xe6, 0x3d, 0x61, 0x85, 0x17, 0x3e,
    0x6e, 0xb5, 0xcb, 0x3d, 0xc6, 0x34, 0xc6, 0xbd, 0x31, 0xb5, 0xf4, 0x3d,
    0xe2, 0xb9, 0x39, 0xbe, 0x1c, 0xea, 0x94, 0xbd, 0xfd, 0x3a, 0x8e, 0x3e,
    0x32, 0x34, 0x68, 0xbc, 0xd8, 0x05, 0x4b, 0xbe, 0x58, 0xa3, 0xc4, 0xbe,
    0x61, 0x70, 0x2b, 0x3e, 0x37, 0x57, 0xd7, 0x3e, 0x5c, 0xd8, 0x22, 0x3e,
    0x25, 0x33, 0x74, 0x3d, 0xdb, 0x98, 0x55, 0xbf, 0x29, 0x2e, 0x03, 0xbe,
    0x4a, 0xe8, 0xe7, 0xbe, 0x14, 0xff, 0x3b, 0xbf, 0xdf, 0xff, 0x09, 0xbf,
    0xd9, 0x21, 0x56, 0x3d, 0x39, 0x0b, 0x5d, 0xbd, 0xa7, 0x88, 0x8b, 0xbe,
    0x75, 0x26, 0x91, 0x3c, 0x7c, 0x50, 0xac, 0x3e, 0x0c, 0x3a, 0x03, 0xbf,
    0xed, 0xc7, 0xbb, 0x3d, 0x0d, 0x2f, 0x8d, 0xbe, 0xff, 0x13, 0x2b, 0x3e,
    0xbe, 0x74, 0x8d, 0x3e, 0xd7, 0x89, 0xd5, 0x3d, 0x89, 0x42, 0x1d, 0xbe,
    0xb5, 0xd0, 0xd4, 0x3d, 0x5a, 0xe8, 0x56, 0xbd, 0xdc, 0x26, 0xd6, 0xbe,
    0xc7, 0x92, 0xb4, 0xbe, 0x8c, 0x54, 0x30, 0xbe, 0xaf, 0xf9, 0x3d, 0x3c,
    0xd4, 0x88, 0x06, 0xbf, 0x42, 0xb8, 0x9a, 0x3d, 0xcb, 0x36, 0x85, 0x3e,
    0x4c, 0xb7, 0xe7, 0xbd, 0xb2, 0x6f, 0x71, 0xbd, 0xa0, 0x14, 0x4e, 0x3e,
    0xbe, 0x47, 0x0a, 0xbe, 0x1f, 0x7d, 0x89, 0x3d, 0x89, 0x16, 0x61, 0xbe,
    0x66, 0x2c, 0x06, 0x3e, 0xf0, 0xda, 0x4c, 0x3d, 0x0f, 0x78, 0x0c, 0x3e,
    0xfc, 0x81, 0xce, 0xbd, 0x9d, 0x63, 0xde, 0xbd, 0x6b, 0xa9, 0xe6, 0x3c,
    0x25, 0xfd, 0x49, 0xbc, 0x30, 0x5d, 0x0b, 0xbd, 0xa6, 0xda, 0xeb, 0x3e,
    0xe5, 0x63, 0xe7, 0xbe, 0xe1, 0x96, 0xe4, 0xbd, 0xaa, 0x65, 0x0e, 0xbf,
    0xf4, 0xa3, 0x70, 0x3d, 0x1f, 0xf4, 0x23, 0xbd, 0x3c, 0x67, 0x48, 0x3e,
    0x67, 0x25, 0x33, 0xbe, 0xc2, 0xaf, 0x91, 0xbe, 0xf8, 0xe1, 0x3e, 0x3e,
    0xd5, 0xdd, 0xbb, 0xbe, 0x68, 0x51, 0x19, 0xbe, 0x64, 0xc9, 0xda, 0xbe,
    0xac, 0x69, 0xc3, 0xbc, 0x7f, 0x12, 0xef, 0xbc, 0xf3, 0x6a, 0xee, 0xbc,
    0x6a, 0x01, 0x16, 0xbf, 0x50, 0x10, 0xde, 0x3b, 0xc1, 0x41, 0x36, 0xbe,
    0x29, 0x75, 0x92, 0x3d, 0xcf, 0x4d, 0x43, 0x3e, 0x29, 0xcb, 0x76, 0xbb,
    0x1f, 0xb6, 0xda, 0xbe, 0x86, 0x2e, 0x5e, 0xbe, 0xe5, 0xc4, 0x21, 0x3e,
    0x4e, 0xf2, 0x9c, 0xbd, 0x35, 0x22, 0x94, 0xbe, 0x34, 0x7c, 0xd8, 0xbe,
    0x86, 0x3a, 0x8f, 0xbe, 0x88, 0xbd, 0x20, 0x3e, 0xfa, 0x56, 0x08, 0xbd,
